#version: 0.2
Ġ Ġ
Ġ t
Ġ a
h e
i n
r e
o n
ĠĠ ĠĠ
Ġt he
e r
a t
Ġ s
e n
Ġ o
Ġ w
Ġ c
i s
i t
o r
e d
e s
a n
a l
Ġ p
Ġ f
Ġ b
Ġa n
in g
Ġo f
a r
Ġ in
o u
Ġ d
Ġ m
i on
i c
Ġt o
l e
- -
a s
Ġan d
ĠĠĠĠ ĠĠĠĠ
r o
Ġ h
Ġt h
en t
c t
e t
e l
Ġ re
Ġ n
s t
o m
Ġ l
Ġ e
i l
i d
o t
i m
i g
Ġ g
v e
u t
Ġ T
Ġ I
Ġ is
o l
a m
Ġ (
l y
-- --
u s
a c
at ion
o w
Ġb e
u r
Ġ S
Ġf or
a d
â Ģ
Ġth at
Ġ on
u n
Ġ A
Ġ C
Ġs t
v er
a y
it h
u l
c e
Ġ 1
i f
s e
Ġ y
ĠĠ Ġ
Ġw ith
i r
Ġ he
Ġc on
Ġ "
Ġa s
c h
ĠĠĠĠĠĠĠĠ ĠĠĠĠĠĠĠĠ
t er
o d
Ġ it
Ġ M
Ġp ro
Ġa l
a g
a b
e m
Ġw e
u m
0 0
Ġ v
r i
Ġw h
p e
at e
Ġ P
Ġy ou
Ġw as
Ġ $
q u
Ġd e
re s
Ġ 2
o s
r a
p p
Ġ B
he r
ĠT he
= =
is t
es t
h t
Ġe x
an t
Ġa t
Ġ H
Ġc om
Ġo r
Ġ r
l d
Ġ \
t h
an d
Ġs e
---- ----
er s
Ġ D
i v
Ġ F
Ġs u
Ġa re
a in
es s
o c
Ġb y
il l
ro m
o re
Ġ W
o p
k e
it y
ou n
Ġ R
Ġn ot
Ġ L
Ġh a
m ent
ct ion
i ve
en d
* *
Ġn e
Ġ =
Ġ N
Ġ -
ig ht
or t
p t
Ġf rom
re d
' s
ar t
Ġth is
el l
u d
Ġs h
Ġ un
Ġ us
t e
Ġ G
Ġ E
re n
p l
i es
Ġc h
. "
ou ld
i al
Ġha ve
f e
ou r
al l
at ed
âĢ Ļ
Ġ le
u re
in e
u st
o g
g e
{ \
Ġ k
i e
ĠĠĠĠ ĠĠĠ
p er
ic h
Ġ 0
ac k
ar d
Ġ O
ic al
Ġ *
Ġc an
Ċ ĠĠĠ
i z
Ġm e
Ġ j
) .
am e
ou t
u p
om e
ag e
i b
Ġw he
u e
Ġa b
d er
Ġt r
o st
ab le
Ġ 3
ĠI n
Ġwe re
c l
Ġp l
Ġ J
Ġre s
Ġc l
ul t
id e
as t
at h
an s
t her
Ġcom p
T he
as e
Ġal l
Ġd o
a ct
as s
Ġ im
oun d
a k
Ġa d
0 1
Ġh is
a p
Ġcon t
== ==
ig n
or m
in d
ou s
ou g
Ġ U
on e
i p
Ġb ut
Ġwh ich
Ċ Ċ
o k
. .
u b
it ion
Ġin t
Ġ âĢ
ĠĠĠĠĠĠĠĠĠĠĠĠĠĠĠĠ ĠĠĠĠĠĠĠĠĠĠĠĠĠĠĠĠ
on g
Ġ [
p h
Ġ en
ic e
Ġw or
Ġa r
c c
Ġ {
ar y
im e
e p
t y
Ġh as
Ġd is
) ;
Ġ +
res s
en s
Ġo ut
d u
Ġg o
in t
en ce
f f
= "
ation s
n e
i a
Ġ qu
-------- --------
Ġh ad
Â ł
Ċ ĠĠĠĠĠĠĠĠ
Ġ 4
_ {
r u
a v
Ġon e
) ,
o se
ac e
c on
Ċ Ġ
i le
Ġw ill
b er
or y
Ġp er
ent s
an ce
Ġs o
al ly
ĠT h
Ġthe y
Ġ up
} }
el y
s o
oug h
i re
Ġ if
/ /
an g
ac h
Ġ 5
a re
r y
Ġ K
Ġe v
e ar
it e
d e
Ġthe ir
Ġhe r
Ġs a
Ġm y
l l
ion s
Ġa pp
ĉ ĉ
ren t
Ġm ore
' t
Ġthe re
ow n
Ġp art
f orm
p ort
Ġl i
x t
Ġyou r
ver y
or d
Ġm an
Ġp re
Ġa g
a ke
or s
Ġn o
Ġo ther
Ġbe en
o ok
e ct
a il
Ċ ĠĠĠĠĠĠĠ
f t
Ġg r
Ġw ould
v el
Ġs p
Ġ <
Ġ1 9
y s
Ġ V
re e
ĠS t
Ġs c
k s
ur n
l ic
w e
Ġwh o
a us
Ġan y
âĢ Ŀ
Ġ$ \
Ġab out
Ġal so
Ġwhe n
Ġt ime
ĠĠĠĠ Ġ
re at
l ow
er v
et h
m ath
w o
c om
at a
[ @
at es
Ġth an
Ġ '
Ġ ro
I n
Ġo ver
Ġs ome
Ġo b
if ic
er m
Ġk n
r ic
\ ]
Ġit s
ay s
f ter
h at
Ġb et
oun t
Ġs he
Ġf e
Ġs pe
o b
c es
Ġ &
re f
o ve
Ġd es
ir st
p le
Ġ Y
Ġint o
Ġt e
Ġa m
Ġas s
c re
j ect
Ġ 6
Ġd if
ing s
} $
ri b
Ġs y
at er
i ed
o v
Ġg en
Ġthe m
le ct
ĠI t
Ġin ter
ver s
ro w
g r
fe ct
is s
1 0
cl ud
he d
ĠA n
ol d
Ġof f
1 9
Ġne w
Ġ }
Ġsu b
in k
Ġli ke
Ġwh at
Ġsa id
ĠH e
Ġg et
Ġa cc
i an
c ed
Ġp e
Ġon ly
Ġre c
Ġun der
is h
Ġcom m
ã ģ
aus e
Ġt wo
^ {
Ġa ct
it t
Ġm od
Ġcon s
ĠâĢ ľ
Ġre l
ĠC h
Ġo ur
c k
Ġm ay
Ġh im
u al
ic k
ar k
t he
i ous
m a
il d
Ġb l
g et
Ġwor k
on s
Ġbe c
ul ar
p s
Ġf un
Ġ _
ad e
er t
ig h
Ġst ud
at ive
Ġin d
Ġe m
Ġp os
r ing
1 2
Ġf irst
Ġy ear
pe ct
Ġde f
Ġre g
Ġtr ans
Ġc ould
el f
u g
Ġp h
Ġj ust
# #
Ġ 7
Ġp r
Ġc o
Ġv al
==== ====
Ġad d
Ġsu ch
oc k
Ġl a
ie w
Ġin v
c ess
Ġfor m
ĠTh is
e f
as ed
on t
Ġwhe re
o od
ot h
Ġp res
at ing
Ġthe n
Ġthe se
o int
Ġd et
ĠW e
Ġdif fe
Ġa fter
Ġc ol
Ġ2 01
Ġh ow
i ent
Ġre t
st em
od e
Ġ 8
we en
p ro
on d
Ġd id
s s
Ã ©
Ġs ign
ol og
Ġat t
he n
? "
Ġex p
Ġre m
l es
Ġp at
< /
Ġkn ow
Ġpro v
Ġs et
il ity
Ġbet ween
_ _
Ġp ol
Ġne ed
op le
] (
ty pe
ic t
1 1
Ġ1 0
is e
e c
f fect
id ent
} \
ut ion
Ġ i
Ġf l
t a
Ġc ell
i x
Ġb ack
Ġus e
Ġ 9
o y
i o
ol low
r it
r ough
. ,
Ġ\ [
Ġres ult
iz e
Ġus ed
e g
) {
e x
an ge
Ġa c
ĠU n
Ġsu pp
ce pt
ib le
r ight
Ġs ur
n ing
Ġsh ow
f ore
Ġse e
Ġs m
f r
f ig
Ġin clud
i el
Ġ Ð
Ġn um
ter n
al s
00 0
b le
ĊĠĠĠĠĠĠĠĠ ĠĠĠ
t o
, "
2 0
w n
Ġd ist
Ġd ata
ment s
Ġsh ould
Ġc or
Ġv ar
Ġspe c
E R
Ġs im
Ġth rough
our t
c y
Ġpe ople
it s
Ġm ost
u es
Ġf ollow
ru ct
Ġf act
it ed
ction s
m er
ul l
Ġt y
Ġ .
l i
Ġcl ass
in ed
in s
Ġag ain
Ġus ing
Ġw ant
e ver
Ġw ell
ra ct
ub lic
u ch
ot her
Ġin st
ĠĠĠĠ ĠĠ
u res
ur ing
ic s
m s
Ġbec ause
Ġsy stem
" }
Ġr ight
Ċ ĉĉ
in al
Ġ end
a x
ate g
p os
Ġ ent
" ,
Ċ ĉ
Ġre qu
S t
e w
er r
iel d
Ġpro du
em ent
o x
it ies
Ġgen er
Ġl ook
Ġ[ @
) $
1 5
ou p
1 3
---------------- ----------------
Ġev en
ĊĠĠĠĠĠĠĠĠ ĠĠĠĠĠĠĠ
Ġe ach
ow er
Ġch ar
] {
f ul
Ġex t
im es
ĠS e
Ġn ow
iz ed
s c
Ġdiffe rent
u c
Ġh igh
Ġcon st
il y
ar s
s p
w ard
( \
1 6
ical ly
con d
Ġw ay
Ġ |
he s
I N
Ċ ĠĠĠĠĠ
T h
Ġ el
Ġe very
1 4
Ġl ong
Ġa p
ation al
.. .
Ġ2 00
Ġd on
Ġm in
Ġe ffect
Ġm ake
Ġdo es
Ġ ke
le t
Ġhe re
Ġp ar
o ol
g er
or k
p ut
Ġd own
Ġc all
Ð ¾
ri v
l ed
Ġt est
Ġs ame
Ġd i
if e
ent ion
t ing
Ġ very
Ġbe fore
al e
at or
Ġb u
( )
Ġc ase
]( #
ĠĠĠĠĠĠĠĠĠĠĠĠĠĠĠĠĠĠĠĠĠĠĠĠĠĠĠĠĠĠĠĠ ĠĠĠĠĠĠĠĠĠĠĠĠĠĠĠĠĠĠĠĠĠĠĠĠĠĠĠĠĠĠĠĠ
Ġde c
p r
re ad
Ġf ind
in ce
Ġret urn
] ,
1 8
a ir
Ġc ur
a red
Ġb oth
Ġst at
2 5
in es
Ġin te
ro l
ant s
i ents
y m
w ay
Ġyear s
ĠâĢ ĵ
r m
Ġth ose
Ġm at
Ġb el
Ġc ar
Ġm on
Ġan al
ar ch
Ġpart ic
oc i
Ġf ound
re st
Ġo p
ri pt
a ve
fr ac
Ġa ut
_ {\
Ġp oint
âĢ Ķ
Ġm ed
eth od
ag es
Ġpl ay
Ġh and
** **
u pp
an n
ut e
" >
O N
Ġt ra
Ġin cre
Ġman y
ain t
Ġ est
A n
Ġbe ing
I t
p ar
Ġg u
Ġl oc
Ġs er
Ð °
Ġp ers
c ent
vel op
te xt
Ġ ,
Ġth ink
Ġfun ction
Ġm ade
Ġc he
Ġ et
Ġ :
an k
Ġ Q
1 7
Ġm em
- >
as es
ak ing
o f
Ġex per
e v
Ġex am
Ġgo od
ĠC om
at ure
s et
c al
Ġnum ber
]{ }
Ġ z
Ġres p
] \]
Ġd ire
âĢ ī
as on
Ċ ĠĠĠĠĠĠĠĠĠĠĠĠĠĠĠĠ
o ver
y l
Ġ Â
Ġapp ro
Ġf il
A T
Ġt ri
ren ce
od y
ĠF or
Ġm uch
s h
d ay
$ \
Ġhe l
is m
en g
t r
Ð µ
v al
c er
Ġin s
Ġo wn
a pp
Ġst r
Ġ @
en se
n er
} {
Ġ ra
ĠA l
Ġs ol
re t
m in
Ġwh ile
oug ht
as h
at her
Ġ /
) )
3 0
u ally
W e
Ġpro cess
Ġpro te
Ġre p
5 0
Ġl ar
3 2
o id
Ġre ad
a h
el s
iv ely
ain ed
ĠAn d
if ied
Ġpres ent
g an
form ation
Ġ1 2
i red
n g
2 01
âĢ ĵ
Ġ\[ [@
n ess
ress ion
b e
f l
Ġg iv
Ġs om
v en
Ġdis c
Ġstud y
Ġth ree
Ġst art
g g
S T
Ġle vel
Ġ x
Ġg reat
ic es
v ed
Ġse cond
le ft
Ġre f
W hat
A R
al k
an y
ateg ory
ĠL et
l ine
Ġ1 8
ĠA s
ar ly
s elf
Ġde velop
b r
Ġg l
Ġpos s
c ul
ĠB ut
Ġwith out
ĠP ro
al th
Ġs erv
is ion
Ġe qu
t on
ign ed
am p
Ġc ourt
um ent
Ġre port
Ġde p
o le
Ġt erm
Ġb r
Ġd uring
ĠI f
C R
ou se
Ġm et
m ed
Ġf r
us s
am s
Ġval ue
al ity
iz ation
i er
N A
Ġa v
math b
Ġ Ã
er g
Ġn on
H e
Ġsupp ort
ff ic
Ġan t
Ġm ethod
Ġs ay
id er
Ġst ill
ter s
, \
le ment
Ġle t
Ġor der
Ġcell s
m an
t il
st r
Ġp ublic
ist s
Ġper form
2 4
Ġp a
ro ss
an e
$ .
' m
ra ph
Ġsm all
id ed
ã Ĥ
: //
ĠH ow
d ition
Ġhel p
y n
Ġpat ients
Ġm ust
ial ly
$ ,
Ñ Ĥ
o h
am b
a z
en cy
O R
l and
v iew
Ġst ate
o ad
an c
r t
Ġt ake
Ġ //
" :
v ing
' ,
Ġ2 0
Ġc ount
Ġl ine
Ġgr oup
Ġd ay
Ð ¸
Ġl ast
Ġc le
Ã ¤
Ġap pe
Y ou
Ġim port
Ġact iv
d s
Ġdes c
Ġc ent
E N
Ġ **
r ay
a w
Ġpre v
m e
r on
Ġ ed
Ġr un
Ġpro ble
E S
Ġagain st
o ot
C ategory
Ġex pl
Ġsign ific
Ġn ame
l ess
00 00
if y
at ic
Ġle ad
ĠY ou
2 2
Ġc re
. âĢĿ
ir c
ul ation
is hed
Ġch ild
ab ility
Ġf am
a j
I T
act er
id ence
Ġpers on
Ġqu est
8 0
n ot
t t
e k
Ġf in
am es
Ġo per
Ġar t
mer ic
\ [
Ġd el
4 0
: :
ch n
qu e
Ġcont rol
Ġ Î
e ad
h ip
ĠN ew
Ġ1 5
Ġvar i
Ġp ur
Ġcon f
Ġst and
Ġpro per
et a
Ġh y
L et
ric t
a im
Ġgo ing
F ig
Ġd em
' re
d a
Ġde v
Ġar ound
! "
w w
Ġo pt
i k
Ġdire ct
Ġhe ad
i ence
it ive
Ġ u
Ġin c
Ġ err
id es
Ġw r
ur ther
( -
Ġin formation
ab el
ys is
ph a
Ġl ife
Ċ ĊĠĠĠ
olog y
s erv
Ġs l
ĠS he
Ġp ost
ot s
Ġ Z
un d
our ce
at ch
et s
2 3
Ġp ass
Ġme as
Ġty pe
Ġto o
ar m
i um
in ation
Ġe lect
Ġb re
2 00
ot t
u red
Ġis s
itt le
at ely
Ġre al
9 9
eth ing
Ġop en
i or
Ġan other
ag n
Ġc r
-- -
Ġwor ld
Ġsignific ant
ĠT r
ĠW h
Ġm ight
iss ion
A N
6 4
g en
f or
Ġresult s
r al
de f
ur al
Ġh um
Ġ ident
6 0
ain s
Ġre st
Th is
pe c
Ġm ult
Ġt reat
A L
Ġc are
Ġcont in
b l
er al
Ġwith in
it al
Ġfollow ing
i vers
Ġt em
Ġmod el
iv ed
he re
Ġla w
] .
Ġdet erm
) \
ord ing
ent ly
or n
w ays
Ġst ruct
Ġ es
Ġl im
Ġs ince
Ġall ow
ak es
ĠThe y
ot e
ater ial
du ct
( "
math cal
r ation
n ame
le x
f er
ion al
Ġ X
at t
ar n
th ing
ab ly
Ġme an
Ġinte rest
w ork
Ġbe h
} (
Ġad v
ĠD e
Ġw om
Ġim p
ĠS h
Ġo cc
3 3
Ġtr y
Ġp ower
ĠA meric
Ġt urn
b y
Ġm ark
Ġcon dition
Ġl ist
2 8
Ġne ver
ĠN o
it her
ĠO n
ent ial
Ġs ing
ur y
ack age
âĢ ľ
Ġs k
2 7
res ent
in ess
Ġsom ething
v es
Ġadd ition
ĠĠĠĠĠĠĠĠĠĠĠĠĠĠĠĠ ĠĠĠĠĠĠĠĠ
al pha
Ġ1 4
ĠC l
Ð ½
t s
Ġas k
Ġfe w
iv es
Ġre ce
Ġse em
C T
if f
Ġv is
Ġexam ple
ch ool
Ġl ittle
b ers
Ġha pp
Ġcur rent
]\] .
u le
ro p
Ġpl ace
Ġre du
re l
ar g
Ġre ally
f ace
s on
Ġb as
pl oy
Ġ1 6
Ġle ft
Ġ ve
3 5
E x
Ġf ield
Ñ ģ
Ġres pect
st and
Ġgiv en
d d
Ġl ess
ĠI s
Ġcomm un
Ġb est
Ġch ang
Ġp op
Ġb us
m l
c ript
h or
h o
Ġinclud ing
Ġp ut
y pe
Ġre le
Ġg ot
ert ain
ht t
Ñ Ģ
Ġl ow
in ing
os ed
is ed
======== ========
E D
se c
Ġcom e
3 4
ĠThe re
Ġl ight
Ġass oci
gr am
Ġo ld
Ġ{ #
__ __
o pe
et er
ĠC on
2 9
Ġinv est
A S
ĠR e
Ġp ot
Ġ1 7
ĠHow ever
Ġc al
Ġh ig
Ġgo ver
end s
Ġh ome
Ġc ap
os s
2 6
Ġte chn
Ġm ot
et y
Ġne xt
Ġar g
ĠW hat
Ġ* /
a pt
Ġf our
iv id
Ġpro b
^ {\
ĊĊ Ġ
Ġty p
eng th
re g
ver t
Ġ19 9
Ġcl aim
en e
ab l
Ġqu e
Ġb ased
Ġto p
Ġg row
Ã ¡
in a
Ġob serv
Ċ ĠĠĠĠ
ra p
0 5
in c
Ġ$ $\
um p
Ġb o
y t
b s
ã ĥ
Ġmon th
er y
Ċ ĠĠ
C on
Ġimport ant
Ġs am
ain ing
ĠP h
Ġind ic
C h
ĠA r
Ġlar ge
rib ut
Ġanal ysis
Ġd er
R e
Ġhe alth
3 7
le ction
Ġob ject
Ġs it
Ġle g
ar i
fe rence
Ġb i
Ġb ro
e e
2 1
Ġpartic ular
Ġapp lic
Ġdesc rib
Ġpro f
Ġbel ie
Ġsu gg
Ġsugg est
Ġbet ter
, âĢĿ
u ck
er n
Ġgover n
ĠS c
ro ll
3 6
ic ro
m b
m un
ar get
ir d
Ġch ange
Ð¾ Ð
re en
Ġm en
u ro
Ġob t
Ġw ater
ap s
ne w
Ġ ide
cc ess
oc ument
I S
p or
at s
' ll
end ed
## ##
amb da
Ġd r
I D
3 8
Ġab ove
Ġth ings
Ġe as
L E
re qu
P ro
Ġcomm on
ĠP l
R E
' ve
Ġd en
le g
Ġ #
â Ī
Ġp ath
Ġm ov
h ib
4 5
il ar
Ġv iew
pl ic
am ma
el ta
Ġs w
I C
Ġcon ne
t en
3 9
pl es
Ġth ought
ct or
' d
Ġh ist
Ġf ile
( );
ar ing
ĠA ll
ific ation
Ġle ast
ĠF r
Ġwhe ther
Ġs elf
pp ed
re am
Ġ3 0
Ġprodu ct
is k
o or
Ġ vers
ĠE x
$ $
Ġf ail
Ġh ard
ĠS o
Ġchar acter
Ġproble m
Ġposs ible
Ġd ays
An d
Ġpos ition
Ġal ways
Ġinv ol
Ġex pect
Ġ1 1
Ġdid n
ĠâĢ Ķ
m u
Ġha ving
Ġcons ider
A s
on se
ad d
Ġw on
a ction
i en
c ur
ĠT o
Ġse ver
Ġg ive
Ġun til
a ut
Ġre ason
H E
a ult
Ġrec ord
Ġcall ed
Ġ {\
Ġre se
Ġfe el
Ġkn own
Ġs ide
Ġto t
ĠĠĠĠĠĠĠĠ ĠĠĠ
) /
A C
w are
Ġv ol
Ġo pp
op y
orm al
c o
Ġev idence
a it
Ġb ig
i j
as k
end ing
un g
Ġm us
ra in
Ã Ń
ac es
a u
Ġquest ion
Ã ³
Ġd ue
eg in
Ġrep resent
ivid ual
Ġf ree
Ġc our
Ġav ail
c he
Ġor gan
Ġpro m
Ġim pro
Ġhum an
7 0
l abel
Ġ --
i od
Ġtreat ment
an ces
Ġbu ild
ac y
olog ical
7 5
Ġa way
Ġke ep
Ġs ize
Ġloc al
l ing
ĠU S
im al
Ġb ook
Ġr ad
ĠUn ited
con t
is on
B ut
} ^{
mathb b
T o
pl ay
h y
aj or
Ġl ater
ĠG r
ren ces
et ic
} _
ou th
ir on
p art
th ough
ig ma
ĠA d
Ġf urther
ep end
b ar
Ġel se
Ġsh own
Ġin it
re m
Ġsing le
**** ****
id d
Ġd iv
al se
C l
Ġs um
Ġfam ily
Ġm ain
} ,
ic le
E T
} _{
h ing
Ġt ell
= \
Ġ2 5
4 4
Ġtr ue
Ġ< /
s el
us ion
Ġn et
em ber
read y
Ġoff ic
ra w
p one
I f
b egin
v ar
Ġprev ious
Ġe y
og raph
Ġexp ression
Ġcom b
in f
ĠA pp
c ol
ĠThe se
Ġf ri
8 8
m at
Ġe ither
ĠA t
p i
Ġind ividual
or g
Ġor ig
Ġp red
ĠTh at
ĠC ol
u ff
Ġsever al
e xt
Ġt imes
ĠL e
ĠB l
n a
( '
Ġsim ilar
Ġp ay
res p
ĠSt ates
Ġli k
ress ed
Ġf ar
it or
6 5
en c
un t
Ġprov ide
Ġpro gram
Ġgener al
A P
us ep
6 9
ĠW hen
im ent
Ġch o
if t
ivers ity
Ġunder stand
Ġme ans
Ġpl an
usep ackage
Ġc irc
ĠS p
ĠIn d
al f
Ġab le
Ġc ost
âĪ Ĵ
u ed
our s
n d
n al
ĠC ourt
Ġal ong
ip le
ak en
C om
oh n
Ġab s
Ġm ove
Ġsu re
Ġf ull
ou ps
e red
um e
erg y
0 4
Ġem ploy
Ġc ode
Ġj ud
Ġwe ek
Ġavail able
is ter
al igned
Ġb ody
ang le
b ack
Ġbus iness
Ġw ar
}$ $
Ġwh y
s w
Î ±
oc ial
Ġs chool
Ġm aterial
Ġ1 3
l er
c hed
c le
ore d
Ġph ys
Ġchild ren
s er
one y
d iv
ã Ģ
or th
Ġin fl
er ing
Ġsh ort
Ġse qu
os p
ph i
m on
Ġ2 4
Ġg ame
itt ed
Ġth ough
Ġal ready
Ġhig her
Ġare a
Ġdif f
y le
Ġspec ific
ind ow
Ġstud ies
Ġc ertain
Ġv i
op t
iv ing
Ġper iod
Ġth ing
is ing
Ġto ld
g o
O U
Ġh old
em pt
m m
s ide
Ġam ong
ne y
Ġin f
Ġval ues
] ;
Ġ !
ard s
Ġs ent
r ist
Ġpro ject
ri ed
Ġm ajor
id th
d ata
s um
le y
Ġs at
ĠO r
Ġgovern ment
Ġen g
Ġc ame
op er
ill ion
ĠR es
F or
Ġdis e
Ġdes ign
Ġen ough
Ġd one
Ġc ases
Ġup on
Ġsu per
9 5
Ġof ten
n s
m it
Ġex ist
8 5
Ġerr or
ust om
m ission
lect ed
Ġe le
Ġ1 00
Ġke y
Ġp ri
Ġpar am
as ter
Ġk ind
Ġ >
Ġb en
ol ution
Ġl ay
Ġm om
ur s
Ġp ort
ri es
am ent
Ġpr im
- \
Ġa ction
6 7
m ost
_ \
v ent
Ġwom en
Ġsub ject
Ġl ot
Ġc oun
a pe
l ambda
ound s
) :
ĠC al
Ġtot al
ep s
Ġstr ong
I I
Ġc rit
er c
9 0
i que
ab les
Ġf ore
q rt
e b
ffic ient
O M
Ġre view
ut es
Ġm ass
Ġr ate
Ġcour se
Ġp ract
a i
Ġte am
ĠĠĠĠĠĠĠĠ Ġ
and s
Ġs ens
Ġacc ess
T r
ch an
ub l
L L
Ġp riv
Ġ ==
Ġs ays
Ġne g
Ġm or
Ġhow ever
A M
Ġm il
N o
Ġt arget
Ġm ar
ĠM r
} ^
m od
Ġlevel s
ret urn
u x
} )
Ġt alk
1 00
Ġpol it
Ġp ress
Ġro om
Ġsp ace
Ġp le
Ġdisc uss
a f
a ug
ib ility
Ġsu ccess
o res
ĠB e
Ġse en
us e
Ġd om
Ġa ir
Ġassoci ated
og n
Ġtri al
Ġman ag
Ġc aus
Ġto ok
Ġ ver
f un
u it
al es
Ġinvest ig
Ġen ergy
Ġdef end
Ġl o
Ġf ac
us h
se qu
H ow
en ed
Ġen c
A D
iv ity
id s
Ġbe g
S E
as ing
ct ed
7 7
6 8
Ġph ot
Ġn ight
Ġreport ed
Ġev ent
Ġa ge
ke y
get her
Ġto gether
Ġ$ {\
u ation
n o
or ies
ru g
Ġb it
i ver
O n
u f
st it
s ub
Ġon ce
č Ċ
Ġresp onse
Ã ¶
rib ution
b ib
upp ose
4 8
{ {\
Ġ )
in ter
Ġl ove
Ġgr oups
.. ..
at ors
Ġe arly
ver age
Ġacc ount
con om
Ġre pl
ĠM ar
b o
g ed
iv al
N ame
Ġm aking
it le
3 1
Ġl ower
mathb f
Ġam ount
cept ion
Ġcon v
v iron
Ġl og
htt p
cre t
O T
Ġw rit
5 5
ĠSt ate
Ġh ouse
t able
on y
A l
oc us
Ġrequ ired
Ġactiv ity
Ġterm s
Ġw ent
c d
Ġcomp ared
Ġrequ ire
I G
Ġv ir
os is
ĠC o
ang u
Ġne cess
cl ass
Ġa ff
Ġac ross
Ġdevelop ment
e ction
Ġpot ential
Ġd ou
Ġwork ing
clud e
A A
U n
ĠAmeric an
I ON
Ġin j
Ġche ck
ens ion
Ġc ult
Ġf ace
Ġe ver
Ġ5 0
Ġf inal
i ans
Ġan n
Ġim age
b eta
Ġ %
ĊĠĠĠĠĠĠĠĠ Ġ
. '
de x
ro du
Ð° Ð
y stem
Ġp ast
Ġ( [
Ġde ath
Ġe ar
at ory
ict ion
Ġcomp ut
pt ion
en n
at ures
Ġ( [@
m ber
aint iff
ess age
à ¤
w h
g a
Ġinclud e
on es
Ġaut hor
Ġbec ome
Ġ Ċ
Ġr ange
i ation
Ġrel ations
Ġm icro
Ġr isk
ud e
^{ -
] ).
ĠUn iversity
Ġt w
ar row
Ġre d
m p
4 7
Ġte xt
Ġdoes n
Ġex c
Ġdet ail
Ġdo ing
g es
8 9
The re
I s
med i
Ġcondition s
ĠJ ohn
un e
-------------------------------- --------------------------------
Âł Âł
th is
et ers
he ad
Ġiss ue
il on
Ġme et
6 6
le te
Ġest abl
Ġdescrib ed
Ġprov ided
ist ic
ut ure
Ġse par
Ġb ar
Ġcomp let
"} ).
4 9
Ġeffect s
Ġresp ons
Ġobserv ed
resp ond
im ate
Ġme chan
Ġchang es
ĠE ng
Ġask ed
our ces
T ype
Ġf requ
Ġcan not
sp an
ĠM ay
Ġsur face
Ġro le
ol l
Ġacc ording
Ġmeas ure
Ġper cent
Ġincre ased
ib r
Ġrese arch
it er
Ġe p
Ġm ind
Ġc ou
t est
Ġcomp any
Ġy et
at ter
Ġcomp lex
Ġother s
Ġincre ase
D E
e q
ac ed
ic y
m y
Ġt re
Ġserv ice
ĊĠĠĠĠĠĠĠĠĠĠĠĠĠĠĠĠ ĠĠĠ
Ġr ather
\ _
Ġm oney
Ġto ward
el t
Ġcount ry
ir l
ĠG en
Ġcon duct
Ġcle ar
ill ed
s igma
Ġse ction
ĠSe e
gr ound
ĠO ne
8 7
S o
Ï Ħ
Ġcont ent
Ġprote in
Ġso ft
Ġs ource
ĠP r
Ġstruct ure
t ime
Ġmonth s
Ġus er
s qrt
in o
Ġpartic ip
b t
Ġb ase
Ġbl ood
ĠC an
Ġfact ors
p m
I d
Ġp ick
Ġf ive
or der
Ġn ormal
av a
Ġc ut
Ġsign al
Ġth ird
uc le
Ġj ob
Ġstand ard
Ġcomp on
ro id
R es
ri x
Ġ `
ĠThe n
Ġc e
IN G
ce ed
ĠC ar
0 2
P h
Ġd ri
Ġcor re
Ġwho le
Ġc y
og en
Ġmat ter
C C
n t
~ ~
ul es
ĠB r
e y
Ġ id
e qu
ĠG od
Ċĉĉ ĉ
ix ed
Ġl and
Ġtem per
Ġcal cul
epend ent
re w
Ċĉĉ ĉĉ
ort un
n ow
ĠF ig
Ġt aken
Ġag re
Ġs ite
viron ment
o ber
% )
ĠĠĠĠĠĠĠĠ ĠĠ
Ġs ocial
r r
Ġqu ant
ĠC oun
ac he
min ist
Ġcl in
it ch
ir m
Ġperform ed
Ġf low
Ġact ually
Ġd am
art ment
op h
math rm
8 6
Ġshow ed
0 9
ra ft
op s
A G
O S
. )
a rent
ww w
Ġlim it
ic ult
st ring
} {\
ru ction
c hes
ĊĊ ĠĠĠĠĠĠĠ
Ġbel ow
Ġmult iple
Ġvar ious
al t
Ġany thing
b it
Ġspec ial
Ġvers ion
Ġh alf
Ġnot hing
Ġsystem s
ĠR ep
Ġpri or
z e
Ġshow s
Ġcor respond
Ġbeh av
Ġdem on
ĠW ith
o ff
Ġdise ase
ac hed
> <
i res
ĠA fter
g amma
Ġcl os
ab or
Ġdet ect
uro pe
ess ion
Ġf ood
Ġbre ak
ens ity
ur ation
Ġreg ard
ide red
ĠT e
Ġappro ach
g ment
Ġrequ est
Ġpro pos
Ġben ef
im um
ĠM y
Ġsy n
d ate
om et
ĊĊ Ċ
Ġvi ol
Ġmem bers
8 4
b ig
Ġal most
Ġpos itive
ĠĠĠĠĠĠĠĠĠĠĠĠĠĠĠĠĠĠĠĠĠĠĠĠĠĠĠĠĠĠĠĠĠĠĠĠĠĠĠĠĠĠĠĠĠĠĠĠĠĠĠĠĠĠĠĠĠĠĠĠĠĠĠĠ ĠĠĠĠĠĠĠĠĠĠĠĠĠĠĠĠĠĠĠĠĠĠĠĠĠĠĠĠĠĠĠĠĠĠĠĠĠĠĠĠĠĠĠĠĠĠĠĠĠĠĠĠĠĠĠĠĠĠĠĠĠĠĠĠ
um ber
L ist
+ \
in ary
Ã ¥
) (
Ġf ocus
er o
c ular
T hat
Ġmom ent
C H
St ring
Ġev al
ie f
Ġlik ely
Ġ ut
Ġm ax
Ġcon cer
Ġcons idered
pp ing
Ġ| |
Ġcon cent
7 9
u k
Ġm akes
ĠP at
Ġmark et
Ġpoint s
Ġexper ience
Ġcre ate
O P
Ġ( *
Ġobt ained
Ġhe art
l oad
Ġs ix
Ġwe ight
ĠâĢ ĺ
Ġfact or
i ke
Ġ q
Ġbl ack
" )
l og
S h
Ġcl ose
w here
Ġspe ct
Ġdev ice
on al
l im
ĠY ork
Ġs us
Ġa ffect
Ġlook ing
Ġtry ing
id ing
Ġne ar
com m
ip s
Ġse x
Ġocc ur
Ġ er
ĠCh rist
Ġt able
Ġs il
Ġc ross
Ġh tt
Ġc reat
Ġdiff icult
itt ing
Ġd ig
Ġdemon str
V al
Ġr at
Ġc ustom
Fig ure
ide o
a ff
c ing
re c
Ġc ity
Ġc ause
angu age
Ġm agn
^ \
t d
Ġf uture
Ġ ill
Ġd rug
st ruct
Ġd at
ĠĠĠĠĠĠĠĠ ĠĠĠĠĠĠĠ
b ut
r ho
Ġh om
C ont
Ġent ire
Î ¿
Ġde cre
is c
âĢ ¦
Ġproper ty
Ġbelie ve
à ¸
Ġst e
Ðµ Ð
Ġyou ng
Ġm ut
00 1
or ld
Ġst ring
val ue
il t
Ġadd ed
i et
p ly
Ġcons ist
Ġf av
ĠF l
Ġpa rent
i i
se e
) *
Ġn at
t ies
Ġt ax
Ġhist ory
tern al
I M
Ġe conom
ĠB y
Ġan g
Ġapplic ation
Ġinte gr
Ġsol ution
Ġtr ad
am a
ĠA ss
0 8
Ġrel ated
A r
ul ated
Ġinclud ed
Ġmin utes
b all
$ -
-------- ----
y ear
Ġfr ont
b ody
Ġcont r
// //
Ġhe ld
Ġreg ion
ful ly
ro s
0 7
Ġcan cer
row n
A B
Ġst ory
Ġey es
Ġan sw
Ġpa per
et ition
Ġdef ined
ĠC ent
ĠA N
Ġide a
res h
Ġ ur
itt en
Ġfl u
Ġass ess
Ġw alk
0 3
ch ie
ly ing
Ġde cl
4 2
A pp
], [@
im port
ĠI N
4 6
ĠS te
Ġse ason
Ġadd ress
Ġrelations hip
he l
ĠP ar
Ġl oss
Ġp ubl
Ġrece ived
ad a
ag ed
Ġser ies
Ġp o
Ñ ĥ
Ġf all
in n
r s
Ġde al
Ġsim ple
Ġget ting
st er
Ġbl ock
C ol
ht ml
Ġrespect ively
and om
ag ing
Ġl ength
en ces
en ing
x i
Ġm aint
Ġatt ack
Ġim mun
Ġm iss
Ġc amp
Ġwor ks
u ly
Î ¹
Ġnet work
Ġv oid
* ,
S he
Ġhim self
ou d
it ing
Ġac cept
pec ially
Ġapp l
Ġwor ds
Ġ= >
d ro
ĠT HE
m itted
d elta
iz ing
Ġcol l
i qu
led ge
ĠM ore
5 7
Ġsignificant ly
is es
p ose
ĠÂ §
U S
ol s
ple ment
Ġ$ (
w ise
Ġth us
li ke
n u
n et
ver se
b ed
I R
t ic
Ġdef in
em s
19 9
ĠH is
Ġb ound
Ġt um
ĠE n
Ġf ig
Ġle arn
Ġh ours
W hen
le q
Ġm illion
is f
.. /
ĠM c
Ġperform ance
5 9
Ġsa w
Ġl ink
sel ves
ĠM ed
ob al
ĠA m
Ġstart ed
Ġst ates
Ġpriv ate
om s
Ġcont act
Ġneed ed
ĠĠĠĠĠĠĠĠ ĠĠĠĠ
ĠE urope
Ġdec ision
m ore
Ġto day
Ġdiffe rence
fe rences
Ġv ia
Ġad j
um n
Â ±
g ree
0 6
Ġpop ulation
> </
A ll
Ġp ain
Ġb ad
I L
Ġwant ed
4 3
}} \
Ġaddition al
Ġmethod s
ĠM an
Ġin hib
Ġfil m
an ced
ind ing
d o
Ġch all
Ã ¼
Ġsh all
Ġint rodu
il i
ĠC or
Ġsome one
ĠG e
ut h
Ġe ff
m iss
oc al
Ġm other
Ġpat tern
Ġthere fore
Ġl ines
ĠN ot
in ks
an ks
Ġinfl u
end er
Ġpat ient
ove red
Ġass um
w ith
Ġcommun ity
ta u
Ġgrow th
) }
com p
ist ance
Ġc ard
7 6
/ *
I P
the ta
T R
Ġen vironment
Ġ2 1
Ġpart y
g l
ĠP ol
oc r
Ġin du
Ġseem s
ens ive
Ġbeg in
o ke
Ġcom pl
! [
Ġits elf
f ile
7 8
Ø §
Ġa chie
at us
V iew
at ively
Î ½
Ġdis play
ov ed
Ġd ie
ome ga
W h
Ġl ive
Ġd est
y ch
4 1
Ġimpro ve
Ġqu ick
Ġwor d
re et
g ress
ĠA ct
am ed
Ġprob ably
at al
ĠD o
Ġh ost
Ġwh ite
b ased
y p
ill s
E M
ĠI m
Ġf oot
P R
Ġappe ar
Ġatt empt
ar c
v ant
od es
t imes
def ine
Ġrec ogn
y ing
Ġinst ead
Ġse arch
Ġfun d
c ome
ĠM e
yn am
il ities
Ġt aking
ï ¼
e ks
Ġre ve
ĠD r
us ed
Ġneed s
Ġp an
Ġmot ion
ur ch
Ġ\ \
ĠĠĠĠĠĠĠĠ ĠĠĠĠĠ
un ch
il es
Ġinvol ved
C L
5 6
idd le
Ġmod els
c ode
Ġbeh ind
Ġst ep
part ial
Ġpre t
Ġgr ound
com es
ä ¸
g est
M y
Ġf alse
um ents
st ant
ed eral
p ri
Ġg irl
h a
ĠC ity
d es
an a
O C
Ġad minist
D ata
____ ____
T able
Ġorig inal
Ġproble ms
Ġserv ices
Ġp age
Ġqu ite
st e
Ġex act
l ight
Ġex ec
8 3
P E
ol ve
es e
Ġcom es
âĢ Ĳ
S e
I V
Ġevery thing
it es
.. ."
al ed
Ġdefend ant
ast ic
inf ty
Ġk new
Ġlook ed
ĠG u
Ċ ĠĠĠĠĠĠĠĠĠĠĠĠĠĠĠĠĠĠĠĠĠĠĠĠĠĠĠĠĠĠĠĠ
Ġexpect ed
Ġ ess
x im
ĠC ont
Ġdist ribution
F F
Ġant i
O L
Â °
Ġv o
ec ause
Ġprodu ction
Ġtemper ature
ĠQ u
ic ense
ĠÂ ±
Ġin put
s ize
Ġs ense
Ġpred ict
Ġe lement
Ġ2 9
Ġdist rict
" );
o o
Ġf ire
Ġqu ality
] )
av ing
Ġl es
Ġcomp ar
Ġcol or
he m
Ġst ay
ar r
P S
Ġs em
Ġl oad
Ġinit ial
}$ ,
Ġins ide
b ook
d ocument
Ġ2 2
ĠTh us
Ġnecess ary
Ġcont ract
Ġest im
Ã £
ĠN ational
Ã §
ĠD ep
Ġind ust
Ġd im
Ġ$ $
s k
Ġgen e
pos ition
U R
ĠG erm
Ġb ring
Ġn ucle
ro te
ĠP res
er ation
U T
Ġw in
Ġfri end
Ġrec ent
. _
Ġinst all
d om
Ġed uc
rib ute
M S
ul ations
Ġes pecially
in ally
b f
Ġw ait
ĠJ an
Ġout side
Ġ ...
Ġs on
a e
Ġ2 8
Ġb ir
I m
Ġpro ced
\ \
d en
ad es
Ġlong er
5 3
r am
Ġim plement
ut ions
Ġpres ence
qu ad
}$ .
b ox
Ġsim ply
ĠD ef
Ġperson al
Ġexper iment
Ġdo or
ill i
Ġj o
l ig
r c
Ġiss ues
Ġt iss
Ġp ie
ad o
W ith
Ġpr int
ĠĠĠĠĠĠĠĠ ĠĠĠĠĠĠ
b re
Ġclin ical
Ġ( -
Ġ â
ra v
Ġfe atures
Ġ4 0
Ġa verage
Ġd ocument
g ing
v ious
Ġf ather
Î µ
Ġev ents
Ġbec ame
it ude
ist ics
her s
b or
Ġprov ides
' )
Ġw all
Ġc apt
A t
Ġst ra
rap y
Ġbe gan
Ġph ase
st ate
Ġsam ple
Ġcor rel
b ject
Ġdeterm ined
Ġset t
Ð »
Ġwom an
Ġspec ies
w ord
ĠA g
Ġmed ia
cc ording
ol ic
f ield
+ +
Ġsequ ence
Ġcomp lete
Ġf em
r im
w idth
Ġwr ong
d is
Ġsur v
s l
Ġeff ort
Ġ2 7
Ġ2 6
ĠC D
Ġform er
5 4
Ġmus ic
ar ily
D elta
Ġd u
cl usion
ym b
" .
ref ore
Ġl anguage
Ġsat isf
os ition
Ġcorre ct
ĠB o
Ġout put
m ary
]{} ,
p re
Ġdi agn
\ *
cript ion
ra ction
Ġcommun ic
ron ic
B y
Ġrem ain
av es
de red
s u
Ġs low
Ġdep end
Ġfun ctions
Ġg e
u ous
Ġpress ure
con st
Ġo x
Ġ/ *
Ġeas y
Ġm ole
R NA
Ġl ack
ĠO F
Ġpl aintiff
Ġstr ateg
Ġstud ents
ell ing
Ġimp act
d own
Ġpol y
EN T
Ġfor ce
Ġc opy
Ġv ideo
P l
osp ital
Ġ2 3
Ġ ir
Ġw indow
p x
Ġh or
Ġhy p
Ġc ry
old s
^ *
Ñ ı
Ġpr inc
ĠA b
8 2
o on
Ġpre c
Ġtyp es
Ġh ot
ĠP art
Ġpol ice
air s
Ġrun ning
it ary
Ġso on
a ctions
O D
Ġphys ical
Ġst ri
Ġd ate
Ġst op
Ġh ope
er a
id ge
Ġac id
S S
th at
Ġsam ples
Ġturn ed
ĠN e
Ġquest ions
Ġg ave
it ation
ann el
Ġanal y
Ġder iv
Ã ¨
Ġtr ack
Ġmem ory
Ġwr itten
Ġf elt
ag s
ĠP er
E n
7 2
Ġis n
s im
l ist
Ġcom ing
Ġc red
Ġle ave
Ġche m
ĠR ev
h aps
ic on
Ġmem ber
Ġpresent ed
Ġfollow ed
um b
Ġcre ated
Ġl ate
Ġhand s
Ġoffic ial
7 4
ribut ed
č ĊĠĠĠ
Ġpolit ical
Ġright s
6 3
Ġ} ,
Ġhe av
Ġs le
par am
Ġeffect ive
| \
Ġt en
Ġfor ward
Ġproduct s
og le
til de
5 2
Ġp ack
Ġre v
ĠP e
Ġdirect ly
Ġval id
Ġwas n
Ġs ound
c m
et t
8 1
G r
Ġeval u
Ġcon fig
Ġtri ed
Ġconst it
ĠE l
Ġb ur
Ġsc reen
Ġparam eters
Ġele ments
eg a
Ġin dex
te red
Ġproper ties
Ġgen es
Ġse lect
s m
ag ue
k en
Ġ! =
htt ps
ch ar
ĠB rit
ĠG o
Ġwe eks
ĠE d
de v
le ase
Ġag o
li er
ri ef
Ġprim ary
Ġnat ural
ul a
ult s
Ġincre asing
Ġwr ite
ĠCom p
Ġr andom
G et
Ġcon text
Ġn ull
Ġident ified
Ġfollow s
Ġconst ant
h ood
Ġknow ledge
Ġm i
l in
ĠP a
Ġd ark
ĠW orld
Ġpol icy
ish ing
Ġacc om
ac c
N ot
Ġcons um
Ġbuild ing
Ġdeterm ine
Ġal leg
7 3
ĠD ist
Ġprev ent
em ents
p oint
ĠW ar
Ġcont roll
Ġansw er
Ġl ost
" ;
Ġfr ame
ĠD es
ĠR eg
Ġnew s
ib er
Ġim medi
f s
Ġare as
Ġb ott
Ġm ach
tr ans
Ġde ep
7 1
Ġg as
cl us
5 8
am m
ap an
il s
ĠS outh
Ã£ o
Ġs ort
Ġgreat er
Ġinv ention
ĠM in
ĠIn c
om a
Ġwh ose
Ġav oid
Ġsoft ware
lement ary
k n
ĠS ch
Ġw atch
cul ate
Ġtrans fer
fun ction
u ary
o e
******** ********
Ġp ict
Ġ ;
Ġex cept
Ġstat us
in clude
Ġlim ited
Ġm ap
5 1
} (\
Ġp s
Ġdevelop ed
fe ction
C D
Ġfav or
ĠI I
Ġbas is
Ð º
Ġb ed
ĠA f
P s
] ^
The y
Ġrele ase
ar ray
ĠN orth
Ġref er
Ġm is
Ġappl ied
Ġtra ining
ĠR uss
Ġhe ard
Ġ ?
ic a
Ġal though
Ġmed ical
Ġst yle
ic les
l ish
as ons
Ġf ul
Ġab ility
Ġthem selves
ĠA ug
Ġm ention
ĠIn tern
i us
ang er
ĠA ust
Ġn ature
Ġm ice
ren g
ograph y
g n
ap ter
ĠS im
ri al
Ġmat ch
Ġthe ory
6 2
ve re
Ġpre p
her n
m en
Ġa w
Ġse cur
o ch
ĠJ ust
Ġaut om
Ġplay ers
ĠS m
err or
ĠÐ ¿
Ġredu ced
ĠTr ump
Ġs al
Ġany one
Ġar ray
Ġparticular ly
i os
p ite
Ġp ull
Ġprevious ly
ru pt
M A
pl ate
Ġr ound
Ġopp ortun
le ge
Ġve h
Ġresp ond
Ġcomp an
ers on
Ġinclud es
Ġus ually
r angle
ag er
I F
Ġs n
pp er
f ra
Ġgr ad
Ġre ference
Ġun d
ĠS ome
Ġf ast
E rr
Ġl iving
Ġd raw
ĠThe refore
u el
Ġal one
Ġre n
Ġb ox
Ġre comm
Ġf ight
Ġa ud
ĠO ct
)$ .
iv il
ĠO ur
im ents
ĠD av
ell ow
Ġlay er
Ġwe bs
cd ot
Ġcont ain
6 1
l or
ash ing
Ġco ver
is ions
A d
ro ph
Ġgener ally
ĠF urther
ol es
Ġre pe
Ġ: =
ac hes
pr int
Ġde ad
z y
D e
ear ch
fe red
\] )
r ite
* ~
ĠS uppose
ig en
ĠHe re
Ġ& &
Ġfri ends
P L
Ġh ref
Ġpro t
Ġbro ad
Ġpubl ished
Q u
Ġan im
sc ript
ill ing
Ï ĥ
or ks
iv en
S D
Ġn ational
pr il
Ġto wn
ot ic
Ã³ n
Ġnot e
p en
Ġbehav ior
Ġd riv
j oy
ĠD NA
Ġjud gment
Ġdire ction
Ġspe ed
T H
E L
Ġim ages
Ġv an
Ġexp ress
Ġ( \[
g or
Ċ ĠĠĠĠĠĠ
Ġsh are
os ph
Ġs qu
Ġl os
Ġim pl
m et
ĠWh ile
in ated
Val ue
an ch
Ġnum bers
ĠL a
Ġoff ice
Ġind ependent
Ġstat ement
Ġon line
Ġdiffe rences
Ġop in
Ġt ou
ac ement
( $
ĠS T
Ġclaim s
ãģ ®
ĠPres ident
ĠM arch
aug h
Ġ[ *
ur g
Ġcomm and
Ġst age
Ġ6 0
Ġd ro
ar ies
ĠCoun ty
Ġart icle
âĢ ĥ
is ms
ĠS ince
Ġacc ur
os ure
Ġm essage
Ġt akes
m ega
un k
Ġact ive
Ġc and
ou l
ve y
Ġun it
Ġhtt p
ter m
Ġpract ice
Ġcomp et
Ġeng ine
Ġv ict
ent al
^ [@
Ï ģ
9 4
ĠN ow
Î ¼
t op
he st
Ġg ames
Ġoff er
Ġal tern
Ġb and
Ġper fect
Ġreg ular
h am
Ġpret ty
Ġet c
p ath
ĠAmeric a
Ġcorrespond ing
Ġd ynam
Ġro ad
ĠH ar
ĠF irst
Ġ Ã©
ĠA rt
ĠCh ar
Ġl ed
ĠJ une
B C
O r
Ġsay ing
Ġbr ought
e ah
Ġspe ak
l ength
Ġre ach
m ing
Ġsecur ity
Ġconst ruct
Ġ ĊĠĠĠĠĠĠĠĠĠĠĠĠĠĠĠ
Ġappro pri
c ell
at ives
Ġen s
ĠH ouse
E d
Ġfe ed
Ġb rain
de ed
Ġro t
und red
il le
er ve
l ation
ĠSe pt
b on
Ġpres ident
c ast
ĠV al
) =
r an
at form
O h
Ġte le
L e
Ġneg ative
Ġprote ct
}} $
z a
Ġappro xim
Ġdou ble
Ġ201 6
Ġb all
in ate
p ret
ar ning
) );
Ġwrit ing
p an
Ġf ine
ĠI d
s upp
ĠB ar
om en
Ġcontin ue
Ġor d
U N
Ġd ensity
ch o
eth yl
O ne
Ġant ib
our nal
Ġobt ain
D o
att le
ĠJ apan
or ph
Ġc am
Ġ201 2
ĠG l
al ing
v ention
Ġ ult
Ġcent er
Ġst reng
ĠÃ ł
ĠH er
Ġ201 4
Ġt itle
S C
Ġtrad ition
ur b
f rom
c all
p at
Ġlar ger
ibr ary
it ter
Ġh on
ay er
Ġ201 3
Ġst ress
uf act
Ġen h
Ġcle an
Ġar r
oci ety
u ge
Ġmeas ured
Ġpropos ed
ĠC ir
Ġfin anc
u ild
ef ul
Ġr ule
ous ly
Ġw ays
Ġhe ar
ma x
y ond
Ġser ious
s ing
es tern
Ġdev ices
Ġpur pose
ĠA P
Ġgr ant
ren ch
gor ith
Ġhy dro
Ġrec ently
Ġrel ative
Ġ201 5
Ġp oor
ef ore
Ġf re
ent y
Ġt er
ĠI S
ĠPh ys
Ġsit uation
u i
Ġback ground
el ine
Ġatt ention
, '
## #
ĊĠĠĠĠĠĠĠĠĠĠĠĠĠĠĠĠ ĠĠĠĠĠĠĠ
M od
oc ks
Ġhigh ly
l a
port s
N ow
a ign
Ġtre ated
ire ct
ĠAl though
Ġevery one
Ġmor ning
M L
Ġl iter
Ï Ģ
ĠCh ina
Ġallow ed
ĠS u
Ġass ert
erv ice
S uppose
Ñ ĭ
Ġr ates
Ġvis it
ps i
ĠO R
ĠS un
Ġpur ch
9 7
vers ion
Ġ âĪĴ
Ġin form
b and
O mega
Ġarg ument
ĠS ystem
Ġgl obal
s pec
Ġdes igned
Ġw rote
n on
G F
ĠA pril
ĠJ uly
Ġ il
ĠS er
Ġo il
ell ant
ch ange
Ñ Į
ail y
Ġac qu
Ġ ri
ic o
f n
m ar
Ġsu it
Ġst ar
Ġres id
Ġchar ge
Ġprof ess
Ġdist ance
om y
Ð ²
Ġinter n
9 8
Ġis ol
ul ate
Ġp hen
Ġ Ñģ
re me
Ġbe aut
Ġcap ac
b i
Ġro w
Ġf a
9 6
Ġprodu ced
Ġpro p
ond on
ĠM on
Ġbir th
com ing
} =
Ġd a
Ġm ount
il ed
\] .
it ness
Ġsu fficient
h ors
Ġs old
Ġus ers
l o
ĠGen eral
i ated
Ġg raph
Ġus eful
C al
iz es
G amma
P ar
Ġar ch
ĠAug ust
m pt
ot ed
0000 0000
Ġinst ance
Ġstat ic
Ġf ixed
Ġh ar
Ġm ag
Ġestabl ished
g y
ac ing
ĠS w
Ġse lected
E X
w as
p id
Ġ201 7
O bject
Ġfail ed
Ġpart s
)$ ,
Ġgiv es
ce mber
ĠJan uary
Ġde gree
ers hip
Ġhe at
m ap
ob ile
){ #
Ġoper ation
ĠW est
č ĊĠ
N ew
Ġsom et
eps ilon
Ġm id
ir ing
Ġpro ceed
or ing
Ġen joy
Ä ĥ
Ġmy self
Ġ201 0
ĠJ ud
Ġcaus ed
Ġbu ilt
Ġident ify
Ġdiv ided
Ġb al
Ġde b
Ġcent ral
ĠA p
ps ilon
Ġdetail s
Ġse cret
C A
ĠD em
Ġwon der
Ġlead ing
Ġdef ault
Ġm er
ab ase
right arrow
Ġtra vel
Ġh undred
O W
in ct
Ġindividual s
Ġim m
Ġfrequ ency
Ġcompon ents
Ġsur pr
g u
Ġexper ien
Ġ[ **
Ġann oun
ove mber
Ġtechn ology
ent ially
kn own
j s
an cy
Ġwork ed
Ġst im
Ġderiv ative
Ġb ank
Ġsc ale
T ext
Ġrat io
Ġe ight
Ġmat rix
S c
e es
Ġvo ice
arg in
Ġleg al
Ġear lier
Ġth reat
Ġmanag ement
Ġprote ins
ĠF rom
Ġsub stant
Ġcho ice
Ġloc ation
Ġl at
en er
Ġp en
Ġ201 1
ĠĠĠĠĠĠĠĠĠĠĠĠĠĠĠĠ ĠĠĠ
v are
Ġpr ime
Ġcomplet ely
z ed
ub e
C E
ãĢ Ĥ
oc ation
Ġfind ings
Ġcount ries
Ġf air
Ġagre ement
un ction
ex p
l ock
at he
S P
k ing
Ġh it
v oid
Ġeas ily
id a
ĠĠĠĠĠĠĠĠĠĠĠĠĠĠĠĠ Ġ
/ >
Ġl as
Ġcl ust
ib ly
Ġread ing
ore m
w ide
i ency
Ġs we
Ġnot ice
Ġfil es
oc ol
Ġps ych
Ġd og
f ort
Ġ ----------------
Ġhy per
Y es
Ġsit es
Ġpr ice
ĠK ing
ĠM ich
f ord
ight s
Ġne igh
Ġcomput er
ĠEng lish
Ġwe b
Ġcom ment
ĠO b
p ublic
Ġa im
Ġsa f
Ġcurrent ly
Ġchang ed
ĠT H
se mb
Ġon es
Ġmov ed
z z
ĠSept ember
Ġ\ <
gr oup
Ġf ederal
Ġman ufact
oper ator
pl it
Ġtoward s
ur t
Ġem erg
ĠÐ ²
Ġtiss ue
Ġwor th
ĠR ed
a ur
ĠDist rict
Ġcompan ies
_ .
el le
ĠF eb
Ġc ook
ĠÐ ½
Ġrequ ires
a res
c ap
Ġwebs ite
or age
ff er
Ġdec ided
Ġqu al
r ate
Ġcont ains
Ġth ous
Ġar m
ition s
Ġre cept
Ġfail ure
ou ble
Ñ ĩ
Ġsc he
ĠOct ober
Ġmod e
Ġrele ased
Ġim ag
Ġloc ated
od ing
Ġem b
Ġpl ant
Ġcompon ent
Ġdri ve
Ġform ed
r is
B S
Ġbo ard
Ġun ique
if ically
Ġlook s
Ġn ames
Ġseem ed
Ġrem ember
Ġbe yond
ĠIn t
Ġcar ry
Ġno vel
ro om
un n
c il
( (
Ġext ra
Ġcult ure
Ù Ħ
Ġconcer n
Ġexp ressed
Ġin n
Ġmult i
ĠSt ud
Ġcon cept
Ġp or
Ġw ife
D es
Ġaut hors
in it
\ '
ĠTr ans
Ġph one
b b
Ġallow s
Ġco ol
---- --
ol der
ĠDep artment
op l
Ġbu y
T T
Ġindust ry
l ink
Ġcirc um
Ġdesc ript
Ġmean ing
Ġple ase
W ell
Ġs ong
Ġcontr ast
Ġopt ion
i Ã³n
Ġtum or
Ġequ al
ir med
F ile
Ġex erc
act ive
Ġcont aining
F rom
Ġpre fer
p ace
Ġsl ight
i ate
Ġcomm it
ward s
Ġsupport ed
Ġtr ust
Ġcle arly
vare psilon
Ġnum er
ot hes
Ġt im
U LL
un der
ut ed
^ +
O f
d im
9 2
k a
S et
te e
Ġro ll
v is
var phi
Ġsomet imes
us er
S ec
un s
Ġdis cl
Ġquick ly
as m
Ġn or
Ġcamp aign
Ġadv ant
Ġplay ed
os ite
M P
Ġappe al
od ies
aug ht
if ul
A fter
Ġc yt
Ġexact ly
* .
qu est
Ġrem ains
ĠM od
Ġfind ing
Ġgener ated
Ġ3 1
ĠC ons
Ġcou ple
ĠDe cember
Ġgo es
Ġ3 2
ĠR ec
Ġappropri ate
per ty
Ġcould n
Ġinter view
unt u
over n
Ġadj ust
S A
Ġsmall er
================ ================
Ġem ail
ir t
Ġcl osed
Ġar riv
Ġover all
ak er
Ġhig hest
ri er
) -
Ġact ual
Ġa x
9 3
ĠJ e
Ġhapp ened
Ġe ffic
ĠAf ric
ar a
ĠN ovember
ĠD et
../ ../
if orn
Ġsle ep
enc ies
Ġconne ction
b um
F r
ĠSt ring
Ġre asons
Ġrel ig
h and
wh ich
Ġopt ions
at o
D ef
Ġcand id
r ad
\ ,
Ġtrans port
Ġim pos
Ġw ide
Ġcrit ical
Ġappe ars
ir it
* ]{}
Ġrele vant
iqu es
E C
ang ed
Ġ upp
ur ance
k ay
Ġst ru
a is
Ġv s
Ġpop ular
o very
ch i
am ple
ĠL icense
r um
F L
Ġelect ro
U L
ve c
ĠĠĠĠĠĠĠĠĠĠĠĠĠĠĠĠ ĠĠ
Ġvol ume
Ġshow ing
Ġmed ium
Ġapp ly
Ġus es
Ġal gorith
r ound
Ġparent s
or ge
ĠP R
ĠÎ ¼
lic k
Ġrest rict
Ġst ore
l ib
st atic
Ġst ation
ĠC he
ric k
ind ex
ashing ton
Ġinter pret
Ġn ode
Ġp air
Ġmil itary
Ġfe et
i ers
ic ip
! !
ĠS en
se ction
Ġh ospital
Ġpart ies
Ġfig ure
B e
Ġexper iments
Ġthink ing
. [
Ġm ur
ĠO f
Ġconne ct
Ġunderstand ing
clud ed
ĠRep ublic
Ġf at
} _{\
ra el
Ġm al
an o
ĠL ondon
v ision
Ġ200 8
a el
bo ard
m ark
00 2
. $$
ru ary
Ġform ation
en ge
Ġread y
id ay
Ġse c
Ġha ir
R T
Ġf ear
Ġth row
Ġprodu ce
Ġactiv ities
\ <
w ell
Ġle arning
ĠH ol
A dd
} ;
Ġconcent ration
Ġfin ally
ist ry
Ġinterest ing
Ġdam age
Ġfil ed
Ġ/ >
ĠS chool
S upp
Ġsub sequ
iforn ia
Ġeduc ation
ĠC ong
Ġvir t
Ï Ĥ
Ġp ul
Ġfe ature
Ġgo al
Ġpro of
==== ==
9 1
as te
O V
k y
Ġopin ion
ĠM ark
Ġimmedi ately
ãĢ ģ
Ġchall eng
Ġ200 9
S im
Ġst aff
Ġful ly
c os
Ġmaterial s
Ġy es
Ġob vious
Err or
Ġstreng th
Ġset ting
Ġg reen
Ġplay er
ers ion
re p
Ġrece ive
Ġparam eter
Ġ201 8
Ġm iddle
Ġst ated
Ġthrough out
T ime
Ġu int
Ġser ver
Ġ_ _
pt r
for ce
ĠHe alth
Ġh ab
st ances
Ġvari able
M an
Ġpro gress
al le
ĠBrit ish
Ġg one
Ġm it
P P
f o
ot es
ad em
p y
ymb ol
Ġ3 5
st ance
b ase
ĠA ccording
Ġresult ing
Ġredu ce
Ġbl ue
ĠAust ral
} ^{\
) ^
or ney
Ġconne cted
Ġr ules
Ġmeet ing
b in
Ġst o
In t
Ġsk in
Ġas pect
ĠW illi
Ġreg ions
Ġinter nal
Ġex hib
K ey
Ġcost s
Ġ( $
Ġpass ed
p ol
ĠB ro
operator name
Ġcontin ued
Ġcol lect
Ġcon sequ
Ġcar ried
ĠE m
st yle
T ER
Ġcoun ter
Ġne arly
Ġon to
Ġdem and
Ġfinanc ial
Ġinflu ence
Ġyour self
it em
Ġt ask
il ing
00 3
Ġch ance
Ġm ess
l angle
* -
as c
ate ver
Ġpl aced
) **
Ġabs ol
Ġro b
Ġcol lection
Ġget s
Ġc it
Ġl ives
Ġdef ine
Ġhe aring
ĠH igh
ms g
Ġlet ter
Ġsepar ate
Ġl inks
Ġindic ated
d ed
over line
os es
Ġb rief
Ġb inding
Ġmove ment
ĠT w
Ġsc ore
Ġmax imum
Ġprocess es
Ġw idth
Ġline ar
R I
Ġli qu
o at
Ġlet ters
D A
ĠM us
Ġnot ed
. \
ot o
Ġplay ing
N S
Ġre action
are st
Ġmov ing
Ġref lect
čĊ č
ĠAN D
Ġ" "
Ġsol id
Ġt our
Ġapplic ations
om b
Ġreturn ed
w orks
col or
Ġhe ight
P A
Ġ ign
Ġent er
o oth
Ġvari ables
p a
it ro
pl ing
Ġn amed
Ġext ract
f ont
Ġfield s
pect ive
Ġmed ic
ĠP ark
as is
ĠA T
Ġbe comes
Ġy ield
Ġthe rapy
rel ated
Ġm ort
om as
ĠM or
ĠB ecause
f ree
Ġre ached
ro y
Ġs i
Ġ ĊĠ
Ġbro ther
as ion
Ġper haps
^{ (
Ġgiv ing
Ġke pt
}} (
Ġgr and
Ġsy mpt
as p
cul es
ing er
Re ferences
Ġrel atively
He re
Ġf it
ĊĠĠĠĠĠĠĠĠ ĠĠĠĠĠ
b ra
Cl ass
Ġform s
h old
Ġreve aled
Ġstra ight
ĠE ven
at ur
Ġ Ø
Ġor g
Ġw ild
Ġit ems
Ġveh icle
Ġand roid
if orm
Ġex ists
Ġd ied
st ream
Ġh our
ĠAn g
AT E
W hy
Ġto ol
Ġinst it
Ġsc ient
gr ad
Ġve ctor
Ġs ources
ĠS ub
Ġinj ury
D R
ot he
ber g
Ġtrans form
Ġmod ern
Ġut il
"} ,
Ġstart ing
Ġj ury
O O
om ic
Ġh ous
am in
d f
m aterial
r ant
Î ·
Ġf ix
erv ed
ut ive
Ġint r
fun c
om an
Ġsa fe
}} _
Ġregard ing
ĠCal ifornia
ĠS an
Ġbott om
cl es
Ġb oy
Ġs end
Ġconv ention
at in
Ġother wise
ot ion
Ġreport s
[ '
Ġparticip ants
Ġtalk ing
Ġinter action
Ġst uff
Ġst eps
Ġcomb ination
Ġmajor ity
ell a
Ã ĥ
( ).
Ġed ge
l en
Ġth ick
Ġcont ribut
Ġdom ain
) ).
Ġp ow
Ñģ ÑĤ
Ġ ]
ic it
er ate
S ee
e ch
ĠD on
ay out
A b
con s
ĠW ashington
Ġ ^
Ġpl us
Ġbas ic
c ase
Ġmay be
ren d
Ġch annel
Ġcirc uit
Ġinc or
ur ity
Ġres istance
Ġpl aces
Ġeconom ic
Ġpick ed
l ong
ĠG et
Ġz ero
gr ams
ens es
Ġun s
Ġ ~
ab led
> >
Com p
Ġin fection
Ġcoun sel
Ġbegin ning
Ã© s
pl ace
//// ////
M e
f il
Ġanim als
Ġwe ak
ĠMore over
P C
Ġconcent r
Ġc ivil
ĠFeb ruary
Ġ( \
Ġwould n
Ġtr uth
Ġcol umn
Ġun its
Ġm ale
Ġpa id
Tr ue
T est
ge q
Ġ9 0
c an
Ġse ven
Ġ( **
Ġ\ ,
Ġ8 0
ok en
Ġbook s
Ġj ur
Ġestabl ish
Ġs un
ad y
Ġsh ot
in y
Ġ eth
ĠUS A
Ġopportun ity
Ġhapp en
it ors
Ġport ion
Ġ um
ĠF rench
Ġobject s
s is
Ġachie ve
en ame
Ï ħ
Ġcalcul ated
ĠDav id
on ic
ĠĠĠĠĠĠĠĠĠĠĠĠĠĠĠĠ ĠĠĠĠ
Ġmechan ism
us es
Ġph osph
Ġsuggest ed
Ðµ Ð½
Ġanal ys
ĠD ata
Ð ´
Ġey e
ĠO ther
Ġsyn the
Ġman ner
n y
Ġl ib
: "
' );
ç ļ
Ġj e
Ġconst ruction
Ġredu ction
t em
ĠIs rael
ĠĠĠĠĠĠĠĠĠĠĠĠĠĠĠĠ ĠĠĠĠĠ
Ġmach ine
#### ##
Ġpl atform
Ġmet al
Ġw ave
Ġequ ation
ãģ Ħ
Ġb ul
Ġhist or
ag on
i ance
ock et
stit ute
ger y
Ġk ill
Ð ¼
Ġc ore
Ġprocess ing
or ry
Ġfunction al
Ġapp arent
C S
Ġsus p
d i
er ia
Ġupp er
ĠPa ul
Ġw a
j e
ot ype
Ġtest ing
Ġrem oved
Ġcom plic
B ig
ar ter
[ ^
Ġtou ch
ri a
Ġdemonstr ated
Ġh op
Ġconsist ent
Ã Ĳ
ines e
Ġl ab
Ġdetect ed
` `
ing u
ĠA c
Ġv ill
Ġag ree
Ġsp read
Ġconduct ed
ĠCent er
Ġmet ab
Ġproced ure
l s
ĠD is
Ġt ree
Ġl abel
Ġ- >
Ġne ut
Ġcho ose
Ġwh om
ĠA M
g ar
n es
Ġhapp y
Ġmagn etic
Ġintern ational
R A
Ġ200 7
Ġtest s
Ġequ ival
] :
ĠWh ite
ĠAl so
oc yt
Ġn orm
Ġad apt
Ġindic ate
çļ Ħ
ĠP al
Ġstat ist
z ym
C t
Ġro ot
Ġa ctions
F orm
Ġra pid
Ġsw itch
Ġvari ety
I A
Ġh arm
ĠSe ction
Ġset s
om in
Ġpe ak
al y
Ġl if
augh ter
Ġco ord
x y
l am
Ġc ast
Ġcare er
ach ing
le vel
Ġsaf ety
Ġgl ass
Ġfl oor
ĠT ex
d ot
Ġt end
Ġun c
ĠP ublic
x x
Ġw id
Ġsp ent
Ġar rest
"> <
i pp
Ġp etition
d r
Ġcl ient
Ġt al
ĠT able
ĠA ut
Ġreason able
semb ly
ĠI L
Ġne arest
Ġpro ve
Ġprov iding
fra k
O ver
ab il
Ġsh ape
z en
Ġad opt
ĠEurope an
ct ors
Ġadminist ration
Ġmem br
M E
Ġstruct ures
\] ,
Ġ< <
re y
Ġn one
% ,
' :
Ġn il
c i
t es
Ġl abor
Ġres ources
Ġcompar ison
us ing
Ġs en
Ġvis ual
C P
Ġc ert
Ġ2 000
wo od
j o
Ġsh oot
Ġbl og
Ġd aily
Ġpie ce
re ly
Ġm ac
c her
ĠFig ure
on ent
Ġcharacter istics
Ġext rem
Ġsa ve
Ġn ice
Ġlaw s
H T
Ġ9 5
Ġrem ov
ell ig
Ġg old
Ġ4 5
Ex ception
Ġcent ury
ĠJ ack
Ġsh ift
Ġcomp r
ra int
ol ved
ust r
in ner
Ġk illed
Ġpl ate
ot ing
j ection
Ġfem ale
pect ed
Ġ3 7
Î ²
Ġcap ital
il ies
Ġ );
Ġcapac ity
ail s
Ġf resh
a ud
ens ions
* (
ing ly
ĠN et
ens ure
ot al
ĠA rm
d ing
Ġsc en
sh ip
ĠDem ocr
ĠP M
Ġb ab
p o
Ġexist ing
Ġun f
Ġpan el
w hat
at ically
Ġbenef its
inf o
ab s
ĠIn st
F A
p ir
stit ution
ou te
Ġw at
Ġit em
ĠIn ter
Ġm ist
Ġc ru
Ġrem ove
Ġd ut
5 00
Ġbeaut iful
Ġsub str
in i
w id
Ġmention ed
idd en
ric es
ĠInd ian
con fig
Ġpre m
ĠCom mission
Ġal bum
ar th
ĠY our
Ġ200 6
lic t
ĠL aw
Ġpict ure
Ġrepl acement
Ġdis s
um an
v est
ify ing
Ġc old
]\] ,
P D
Ġcontin uous
Ġens ure
ĠI D
ĠBl ack
Ġp un
Ġappe ared
Ġstud ied
ens ional
in put
Ġh us
if ier
Ġdefin ition
ĠInd ia
T E
ĊĊ ĊĊ
h ow
Ġtyp ically
it z
Ġreg ul
Ġd anger
Ġcr im
app ing
Ã ª
Ġse lection
Ġra ised
Ġc op
Ġfact s
ann ed
St ate
ãģ «
Ġexp osure
ĠA D
Ġdat abase
Ġw ind
f low
rom e
Ġb urn
č ĊĠĠĠĠĠĠĠ
Ġcl ub
Ġtr ade
P ath
[ ]
Ġam pl
os en
Ġincre ases
Ġse vere
Ġthe rm
se y
il os
et te
h ost
ĠS ec
Ġass ume
act ers
Ġdiscuss ed
d b
Ġfeel ing
I B
= '
Ġd oc
It em
Ġgu ess
ag o
st art
ES S
Ġprep ared
Ġdet ection
Ġsol utions
end ant
Ġdr ink
Ġopen ed
Ġme ant
Ġvict im
ĠFurther more
ĠRes earch
ĠJ ames
ic ed
Ġr ace
st on
ä º
i pe
S ize
Ġm o
D on
Ġm ill
Ġc up
con ne
Ġtrans ition
ot a
u ced
ĠAss oci
Ġrespons ible
Ã ¦
Ġsp in
indow s
Ġla ug
Ġcommunic ation
Ġapproxim ately
Ġexpl ain
Ġd ed
ĠR ober
ĠH am
Ġw itness
F T
ic ks
Ġimpro ved
or ter
Ġp ackage
00 5
Ġb ud
00 4
r ical
ru it
c or
U M
so ft
ĠO h
Ġcl ick
Ġb ond
Ġw ood
Ġup d
Ġheav y
enc ing
ig ation
ensure math
Ġ3 6
Ġl ip
Ġst ream
AN D
Ġexpl ained
Ġdou bt
c ar
Ġsuccess ful
} ,\
Ġn a
Ġ( "
pro du
ĠL ist
Ġrad io
? '
os ing
Ġopt im
Ġr out
Ġliqu id
ĠGo ogle
c ount
Ġro ck
ÂłÂł ÂłÂł
Ġm ig
t itle
Ġb acter
ĠO ff
ist ant
b an
Ġl ock
Ġag ent
Ġ7 0
Ġoper ator
Ġocc up
c irc
Ġalleg ed
ograph ic
math frak
ĠP C
ĠT V
Ġs ell
ph p
h an
Ġrecomm end
/ (-
ag ement
Ġpar a
ĠS pec
Ä ±
ld ots
h al
ĠU K
Ġcomm erc
Ġmeas ures
j ava
ĠM ost
app a
Ġdis miss
p arent
Ġgu y
Ġtrans l
Ġpre par
ĠM ac
Ġp ark
Ġcertain ly
Ġwant s
Ġev olution
E E
Ġserv ed
Ġtechn iques
ang ing
Ġintrodu ced
ĠR ich
Ġ ÏĦ
as ma
Ġsex ual
le m
Ä ģ
' ;
ĠS y
c in
Ġfor ces
B l
S ub
/ (
ĠIntern ational
AL L
* )
ĠCh inese
ar io
r ide
ĠG overn
im ony
ĠJ er
Ġleg is
ĠE v
Ġcon vers
Ġelect ric
.... ....
Ġfore ign
ĠĠĠĠĠĠĠĠĠĠĠĠĠĠĠĠ ĠĠĠĠĠĠĠ
sp ace
ĠC H
t re
Ġlead s
Ġexp and
ub untu
" />
S H
Ġbenef it
ur a
ri an
fe rent
F alse
Ġg un
b olds
AN T
Ġto ols
y ou
Ġpro grams
ic ial
Ġexperiment al
Ġold er
Ġbel ong
bolds ymbol
Ġsur round
en ced
Ġess ential
n b
Ġins ert
as cular
ite ct
tr ue
Ġinter face
Ġn ation
Ġgrow ing
Î º
O ut
Ġcomb ined
ĠJ ew
Ġb order
go ing
ĠD an
U p
Ġdef ense
ĠGerm an
Ġb orn
ĠP ress
lic ation
ĠR E
ä »
Ġchall enge
ri ent
Ġ4 8
Ġmot or
im age
L A
Ġide as
Ġv ent
Ġh uge
Ġstrateg y
Ġcom ments
Ġprofess ional
R ead
et ry
Ġsubject s
ĠA tt
C ON
Ġk in
[ \
id em
v o
ĠR el
Ġf ib
it ivity
( ),
( {\
Ġthan k
Ġst orage
m ail
ĠSt reet
ĠF e
Ġa ward
Ġne ur
Ġmon itor
or row
p ers
Ġwhere as
Ġcol lected
ĠP re
Ġw ish
Ġup date
ur rent
ĠA dd
Ġun less
id el
P T
** )
u a
Ġst ock
Ġdescript ion
it a
Ġspec ifically
Ġactiv ation
ra z
Ġs av
ar ant
Ġdes pite
Ġopt ical
Ġ" [
Ġadvant age
k t
Ġser ve
Ġk ids
Ġpr ison
ic ity
c hen
AR T
op en
ĠCong ress
Ġcontrol s
ĠT wo
Ġtest ed
Ġexerc ise
L ambda
Ġ vert
Ġem pt
ĠM iss
Ġsum mer
ĠS am
Ġm g
ĠR NA
Ġk id
ul f
. ](
oth ing
Î »
Ġslight ly
Ġdel ay
ĠP ost
Ġrem aining
a a
Ġpro port
Ġconf irmed
r d
R eg
ot imes
Ġmole cular
Ġsurv ival
)/ (-
Ð¾Ð ²
ĠE ast
l t
Ġchem ical
ĠM art
Ġaltern ative
Ġp al
ed s
Ġc at
Ġdist inct
is d
h i
Ġindu ced
ĠN OT
C an
ip ment
Ġfil ter
Ġs ch
ĠĠĠĠĠĠĠĠĠĠĠĠĠĠĠĠ ĠĠĠĠĠĠ
Ġv ac
Ġchar acters
ow s
ĠN ULL
Ġf if
ĊĊ ĠĠĠĠĠ
ĠE ach
Ġmiss ing
âĢ ¢
Ġr ing
ĠC irc
Ġwork ers
Ġagre ed
ĠÐ ¸
Ġm m
S I
Ġn ut
Ġ200 5
Ġpl ans
Ġv el
os c
b a
00 01
ãĤ ĭ
Ġcompl aint
Ġc atch
Ġdrug s
ĠC ON
is ation
ĠN ote
Ġinvestig ation
k g
Ġcall s
Ġfoot ball
Ù ħ
b m
u ing
Ù Ĩ
Ġpro s
q l
as ure
Cal culate
A V
id ers
Ġtechn ique
ĠEng land
Ġwe ap
Con text
Ġent ry
p ass
Ġsc ience
on na
Ġrecord s
Ġabs or
ĠU p
Ġassoci ation
Ġdig ital
Ġoccur red
Ġanaly zed
Ġden ied
Ġsur gery
Ġfam ilies
Ġoper ations
The n
dd en
ĠW il
Ġhealth y
Ġaffect ed
Ġhold ing
Ġm ix
ĉĉ ĉĉ
Ġcy cle
ed om
Ġf irm
C M
Ġmin or
Ġr ul
Ġrel ation
ĠS up
Ġenc our
Ġcomp osition
Ġw arm
ãģ Ĺ
Ex p
Ġan imal
z on
it is
ri age
Ġtem por
ĠÎ ±
Ġtradition al
Ġcard i
ĠGr oup
p c
che ck
iz ations
c oh
act or
Ġof fered
Ġoffic er
Ġopen ing
Ġ3 4
ell ed
Ġprob ability
Ġwh atever
k in
C O
ar p
Ġsympt oms
Ġg al
Ġe fficient
Ġfr ag
Ġcorrel ation
Ġ3 3
Ġinst r
it led
fect ed
Ġd rop
Ġmin imum
Ġabs ence
. *
ign ment
Ġch ain
}} {
Ġalgorith m
ist ory
ĠT O
Ġsuggest s
Ġch rom
Ġhus band
Ġdist ributed
Ġun a
å ı
D S
g s
Ġcor por
and er
i at
Ġc ir
Ġs ociety
E vent
Ġrecord ed
Ġtr ig
ĠF ound
in ity
ant ly
Ġdiscuss ion
Ġcom fort
res ents
Ġr ank
æ ľ
} -
Ġb one
Ġbig gest
Ġjud ge
P O
Ġh ol
Ġent ered
h ouse
Ġsp irit
r ich
olog ies
Ġclass es
Ġher self
y a
Ġstud ent
Ġcon ver
Ġ4 2
& \
Ġgener ation
ĠM al
ĠĠĠĠĠĠĠĠĠĠĠĠĠĠĠĠĠĠĠĠĠĠĠĠĠĠĠĠĠĠĠĠ ĠĠĠĠĠĠĠĠĠĠĠĠĠĠĠĠĠĠĠĠĠĠĠĠ
Ġform at
Ġsu dden
' .
alle l
k i
ĠBo ard
Ġhtt ps
Ġbre ast
Ġcircum stances
G L
Ã ł
d et
B L
pr ime
Ġsy mb
p ost
Ġcaus es
Ġestim ated
Ġsit u
ĠE very
Ġsc ript
o z
Ġorgan ization
ĠT est
Ġf ra
^ âĪĴ
Ġb ill
Ġe at
Ġfa ith
Ġsum mary
ym ph
Ġder ived
pos es
A ct
Ġrepe ated
Ġhand le
se m
ĠK e
. **
() );
Ġinc ome
ĠB ank
ĠS upp
Ġex ternal
al ysis
Ġb ow
Ã Ĺ
U E
ĠB en
uff er
Ġeffort s
Ġsm ooth
th on
Ġint ended
ion e
Ġj oint
ĠA ir
' ]
ĠC am
sub set
Ġconvention al
ot yp
ĠPl aintiff
Ġvol t
r or
Ġno ise
ĠC a
Ġ( (
ĠWh y
wh ile
i able
P er
ĠSu per
Ġr ise
Ġprote ction
land s
Ġknow s
g in
um in
In dex
ĠO ver
ol ar
Ġcry st
Ġres olution
Ph i
ĊĊ ĠĠĠĠĠĠĠĠĠĠĠ
O ur
Ġgu ys
Ġnucle ar
Ġext ent
cont ent
C s
iv o
In fo
S er
Ġce le
ill a
Ġ Å
Ġd ry
S ome
iz er
ob ject
Ġag ents
ck now
Ġen zym
ĠGe orge
\ |
ãģ ¨
ĠW ell
es is
s f
}} }
us hed
Ġbehav i
Ġrequire ments
Ġsh ared
âĢ ²
: **
ĠÐ ¾
ĠL ou
ĠAn y
ĠS uch
Ġstru gg
S p
Ġch urch
i very
Ġc overed
Ġle aving
Ġm obile
Ġinterest ed
ir ty
ĠTex as
c s
Ġst ars
ĠG reen
R ec
ER S
n ers
Ġk it
Ġdiagn osis
b urg
Ġd aughter
à ¥
C ode
Ġrep resents
Ġst re
Ġpattern s
Ġrespons es
ĠD i
g reg
Ġoff ers
Ġe lection
il it
el ess
Ġd oll
ist ed
Ġdecre ased
Ġannoun ced
Ġim plic
P r
Ġ// /
Ġre b
ap ers
ĠCan ada
ace book
Ġn orth
y r
v an
Ġear th
Ġse a
re es
Ġcred it
Ġcreat ing
-------------------------------- ----------------
Con fig
v a
Ġ200 4
Ġl atter
B I
spec ific
Ġco e
ĠP ort
c ks
Ġan c
k appa
ĠUn der
Ġreg ist
he t
v ille
n ight
Ġemploy ees
bl ock
te rest
Ġar ms
Wh ile
ĠGerm any
) ?
Ġdo se
Ġwait ing
F ield
ĠFr ance
ra pe
Ġman if
Ġdown load
m ic
Ġsupp ly
Ã º
o om
Tr ans
mb ox
Ġm es
ĠI ll
ĠB er
Ġtra in
Ġl it
Ġdi et
Ġsent ence
ph one
S igma
Ġsc ene
ĠS ur
ĠD E
ĠL ord
l ook
ÑĤ Ð¾
Ġtest imony
Ġc row
Ġm outh
s ens
Ġw el
Ġcit iz
ĠSm ith
omet ry
et es
Ġsh ip
pl ed
G R
ãģ Ł
n ode
Ġincor por
Ġcont ained
Ġprof ile
~~ ~
Ġs ales
Ġst ood
c el
il de
in der
M T
r as
i ant
ans ion
Ġe arn
Â »
ĠR em
ul in
Ġsu ff
ï¼ Į
Ġliter ature
Ġadd ing
il arly
Ġexist ence
ap pe
Ġpl ants
am eter
ĠC R
Ġ201 9
Ġsy mm
Ġsu st
âĢ Ĭ
Ġoffic ers
Ġte ac
Ġlar gest
Ġdri ver
Ġm ental
Â ·
** ]{},
ĠD ay
cur rent
Ġanalys es
ãģ ¦
Ġes c
_{ {\
Ġcommerc ial
Ġauthor ity
Ġdescrib e
' '
Ġst d
ĠCom mun
ĠT om
Ġ --------
ĠA re
Ġv ote
non umber
l ast
Ġdriv ing
ĠMich ael
Ġsqu are
ĠY es
Ġ à¤
Ġst ories
ĠO ut
Ġproper ly
Ġinterest s
h r
s ible
Ġlo op
H and
Ġrefer red
Ġb es
ber t
n am
Ġth read
Ġsh ut
ĠB oth
Ġin deed
Ġmechan isms
Ġsign als
Ġconcentr ations
J ust
fr ame
": "
Ġm aster
ĠD el
Ġf ol
Ġstand ing
ĠC ode
Ġsp ot
j ust
Ġc atal
Ġlearn ed
Ġcomplet ed
Ġp ure
Ġep is
Ġcar bon
st ract
ĠNew s
Ġquant um
Â Ń
n ormal
r un
Ġtrans mission
Ġlat est
r ange
Ġempt y
Ġsupp osed
B A
Y S
M O
Ġpe ace
Ġsto pped
Ġerr ors
Ġmod ule
. [@
Ġl ibrary
ÃŃ a
Ġr an
Ġofficial s
ste in
u ate
Ġmeasure ments
fr ont
w rite
ãģ §
Ġbre ath
Ġneigh bor
ĠSe cond
abl a
Ġimport ance
Q L
Ġg ain
ol f
Ġpartic les
ĠE q
Ġinter actions
i h
c a
i as
ĠW estern
out hern
op ic
j a
Ġp ool
ear s
ĠM et
ER T
ind uced
ed y
N T
n um
Ġw ire
pt ions
Ġapp rec
Ġel im
ro g
Ġrem ained
p age
Ġpur poses
Ġdecre ase
Ġgen etic
Ġin sp
Ġpol ic
Ġcustom ers
Ġmembr ane
Ġm ir
Ġa head
Ġposs ibility
Ġinvol ve
Ġf arm
i pped
Ġbu ffer
ĠC O
ĠM ary
{ {
( &
Ġjur isd
ĠM at
ĠUn ion
Ġn an
Ġl ung
Ġ/ **
M I
Ġare n
am ily
Ġcons erv
Ġst reet
F irst
ĠD uring
Ġbut ton
ari ant
Ġapp ar
ĠCh urch
ĠSup reme
Ġremain der
Ġpl ane
ĠChrist ian
roll er
ãģ ¯
is hes
Ġs outh
d y
Ġpower ful
Ġdirect or
Ġcrim inal
Ġequival ent
k er
Ġatt ract
======== ==
Ġm a
Ġsequ ences
Ġex change
P e
ic ians
ur l
G G
How ever
Ġrecept or
a fter
ĠTe chn
Ġmov ie
m em
ĠP D
c ore
Ġar bit
ĠJ es
Ġ ing
Ġun iform
b orn
ãĤ Ĵ
Î ¯
an i
Ġcon clusion
R S
Ġout come
Ġcon vert
ĠCoun cil
Ã ¢
l if
Ġgreat est
iven ess
ond ay
oy al
Ù Ĭ
or a
ur ies
c ence
ĠÐ º
Ġha ven
Ġ200 3
ĠS al
re ct
am ing
ane ous
Ġst able
ad er
\ !
ru ctions
Ġele v
Ġb row
Ġ3 8
w in
Ġhyp othes
Ġc as
ant ic
Ġexper t
Ġfin ite
ĠComp any
Ġelect ron
Ġident ity
ĠI II
ĠPe ople
Ġindic ates
Ġproject s
Ġb illion
ĠG reat
A meric
Ġf ell
Ġoper ating
ject ed
Ġequ ipment
Ġg onna
Ġen em
Ġins urance
In ter
Ġle aves
Y eah
Ġfl at
Ġext ended
Ġc ateg
Ġorig in
f aces
ĠB el
Ġb ra
Ġflu id
ĠSt at
ĠIn stitute
Ġex ception
Ġhelp ed
Ġspe ech
Ġf lex
Ġm ouse
Ġ( !
Ġsee ing
Ġevent ually
ang es
n abla
I O
ĠAd dition
ain e
ĊĊ ĠĠĠĠĠĠ
Ġp our
Ġpl asma
ag en
Ù Ī
m d
Ġd ra
Ġcontroll ed
so le
ĠA lex
onal d
K E
Ar ray
amp ions
Ġapp oint
st ood
Ġem ot
clud ing
Ġreturn s
re al
ĠCl ass
Ġne uro
Ġexc ell
d raw
re r
er ic
Ġhold s
Ġ ------------
Ġmaint ain
c rib
N e
Ġsecond ary
Ġdi ab
Ġn av
ĠÐ ´
ord s
Ġbelie ved
, -
Ġcam era
Ġhapp ens
AT ION
Ġmost ly
ĠT ra
Col or
Ġmil es
and o
Ġappar atus
N D
Ġdise ases
as ks
} )$
Ġvir us
ĠC A
Ġconf irm
v i
Ġ200 1
Im age
R L
ĠK ore
ĠA L
Ġfil ms
n ce
Ã¶ r
Ġfor th
ad s
ri e
ĊĠĠĠĠĠĠĠĠĠĠĠĠĠĠĠĠ ĠĠĠĠĠĠĠĠĠĠĠ
an es
âĢĿ .
icro soft
Ġa ware
A tt
/ \
N E
Ġjo in
Ġsubstr ate
ri ve
Ġrepresent ed
opy right
ord ers
ĠF inally
ty p
Ġre ality
Ġrun s
mit tee
Ġcele br
Ġmus cle
Ġcr ime
ĠS et
Ġrel ief
201 5
Ã ±
201 3
F l
" ,"
ĠR ob
ill er
Ġb right
s es
Ġschool s
Ġsur vey
ĠS ervice
Ġpre gn
re ate
Ġocc urs
Ġgener ate
Ġchar ged
Ġspect rum
xt ure
let s
ĠN S
Ġvel oc
Ġest imate
} +
pl ify
Ġstat ute
ell o
ĠA R
M ap
() )
ge bra
ĠF OR
Ġl ov
a per
Ġbal ance
est s
ar ian
Ġlead er
Ġser um
________ ________
] ),
Ġconfig uration
Ġfund ament
P H
ort hern
yn c
ith ub
Ġexam ples
ili ar
T C
Ġdig it
Ġte ams
c are
Ġm el
mat rix
#### ####
ĠM any
l n
s a
og ene
Ġb attle
m as
ap i
y e
Ġdevelop ing
Ġextrem ely
ãģ ª
Ġdi ag
ist ent
s he
ial og
ĠM ex
ĠJapan ese
An y
ĠV ir
Ġmor ph
ĠH all
act ory
Ġj ournal
Ġfin ished
ĠM em
Ġthan ks
ard en
Ġin ner
Ġsign ed
Ġ6 4
Ġa f
ĠR ead
it ory
ist or
am mat
oc y
we ight
cre te
Ġex cess
Ñ ħ
it ative
A ss
Ġvolt age
el es
ab ilities
D L
Ġch ronic
A re
ĠR et
ĠS E
Ġfor ced
Ġt ro
Ġli ver
ĠOb ama
Ġexam ined
il er
nb sp
Ġeffic iency
Ġ( )
Ġde bt
en a
om orph
Ġsh o
F C
Ġs rc
il der
Ġdel ivery
ĠFr anc
D is
ĠF acebook
Ġg ar
Ġne ither
ad ing
Ġ ice
"> </
Ġpro sec
Ġ200 2
Ġaut o
Ð° Ð½
201 2
s ource
Ġag ency
ĠWh ich
201 4
Ġevalu ated
ortun ately
ĠCal culate
Ġthous ands
F R
å Ī
F I
wid et
d ots
Ġcol on
al ian
am ine
app ro
Ġf ish
Ġsubsequ ent
riv ate
Ġcy cl
Ġch osen
ĠPh il
Ġrepresent ation
Ġhigh light
Ġ-- >
Ġad ult
Ġ5 00
M R
im b
Ġachie ved
ific ations
" ).
Ġcall ing
l ocal
M ay
re hen
Ġr ich
ĠFr iday
sm all
widet ilde
Ġde g
ĠJud ge
Ġdes ired
L og
Ġal coh
R ep
Ġassess ment
Ġm ixed
Ġarch itect
ĠÃ Ĺ
ĠFound ation
Ġiss ued
Ġt ag
Ġ ×
t i
S te
ĠM ag
Ġmeasure ment
Ġn ic
anc ing
ĠCirc uit
Ġtw enty
om es
d ependent
Ġs pl
ĠCol lege
ash ion
Ġ} );
Re quest
G o
ĠMr s
Ġdirect ed
á »
Ġposs ibly
Ġcol lege
Ġsubstant ial
Ġmanufact ure
Ġatt orney
Ġint ellig
ol a
c up
Ġgirl s
in st
ak ed
Ã¤ n
resh old
Ġexpl icit
) "
ĠV ol
---- ---
Ġto x
Ġp aint
Ġview s
is her
fe e
ĠD iv
et ric
ut or
f a
ok ing
ic ated
Ġbab y
os a
Ġint ent
Ġam b
** (-
Ġt ight
Ġdep th
ĠT ime
Ġcrit eria
Ġtyp ical
Ġs in
C o
res ult
Ġ iron
The se
X X
Ġs ession
ĠSc ience
ic ian
====== =
C ount
Ġ7 5
Ġext ension
j ud
Ġcon d
Ġrece iving
ĠLe ague
Ġprote cted
ĊĊ ĉ
Ġposition s
Ġdisc overed
Ġv ary
Ġchang ing
Ġn arrow
C he
ĠFr ank
ip her
Ġhe ter
p ack
ĠN a
Ġf illed
ĠThe orem
Ø ±
T S
ri end
1 01
) [
I ST
Ġth in
Ġang le
ĠM A
Ġdest roy
N ode
ĠRober t
ĠB ay
Ġn od
2 000
ĠU sing
å ®
m t
y gen
Ġf raction
G B
\ {
}} _{
Ġj ump
stand ing
Ġper t
ĠSun day
Ġeas ier
Ġnet works
ac le
/ **
Ġ3 9
ost ic
te en
os h
ĠL em
Ġsk ills
l aw
Ġenvironment al
ĠM il
Ġl ived
Ġallow ing
M ethod
ĠB i
Ġunder lying
Ġal t
Ġl ymph
Ġsp end
as hed
Ġinvestig ated
a ren
Ġch air
m es
cre ate
ocyt es
S M
ĠM o
ãģ Į
D ate
)/ (
Ġor dered
201 6
supp lementary
Ġk ing
du c
app ed
Ġsh ock
dim ensional
u h
Ġf ab
Ġcur ve
S U
m o
Ġout comes
Ġsche me
ĠL ike
ĠAustral ia
u ce
Ġun ivers
Ġim aging
Ġprinc ip
Ġass ay
Ġeconom y
Ġrec all
ĠM ad
Ġt ub
def ault
Ġun e
it ely
U ser
Ġal ter
ce ived
r id
Ġact s
Ġpol ar
ĠIn s
ãĥ ¼
Ġa cknow
Gr oup
$ (
Ġdetail ed
Ġam az
Ġfour th
ch ild
Ġask ing
Ġo m
Ġcomp ounds
Ġinte ger
E qu
ĠP en
$ $\
Ġisol ated
Ġappro ved
Ġem ph
Ã§ Ã£o
Ġch ief
Ġs orry
Ġmin ute
Ġsu p
Ġtw ice
Ġt on
ĠPart y
ed ing
atur day
Ġdep ends
ict ed
Ġimmun e
Ġl ie
Ġmar ried
Ðµ ÑĢ
ammat ory
Ġco verage
Ġcap able
Ġrel ates
A ut
ĠQ ue
Ġcon c
Ġcomp ens
Ġlead ers
ĠCom mittee
---- -
cl aim
ell s
Ġs alt
Ġs ac
Ġtrans cript
Ġsp at
F il
Ġapp ellant
Ġt ick
E lement
Ġelect ronic
Ġstrong ly
f irst
bre ak
ĠT ur
å ħ
ĠM a
T O
ann els
Ġsm art
ĠH ill
Ġv acc
Ġs itting
d t
Ð° ÑĤ
ĠWe b
it o
in er
ĠS um
i pl
Ġde fect
Î ³
F P
Ġb atter
Ġt error
m and
as y
---------------------------------------------------------------- ----------------------------------------------------------------
Ġ+ =
al a
Ġposs ess
] [
c r
S L
Ġhe ll
] --
ĠN or
ĠG ood
Ġdec isions
Ä į
Ġemploy ed
Ġimplement ation
Y our
Ġentire ly
ok es
x e
in ations
Ġg ra
ĠH en
p ress
Ġmark ed
Ġgu ide
Ġeval uation
Mod el
oper ative
Ġfocus ed
Ġqu iet
ĠAmeric ans
te x
h as
ä ½
id o
Ġd Ã©
Ġt ens
ĠAssoci ation
it able
Ġlist ed
Ġse ctions
Ġinc ident
Ġpl ays
ĠR iver
Ġg od
Ġs ides
Ġgl uc
Ġarg uments
Ġexcell ent
Ġ4 4
it ud
"} .
A ccording
ues day
201 7
Ġint ensity
Ġdisc rim
se lect
Ï Į
Ġtra ffic
Ġbr and
Ġtre es
Ġc ategory
Ġst ored
C I
Ġdut y
Ġg ly
Ġcor ner
C lick
Ġvers us
Ġexpl an
ãģ Ļ
Ġqu arter
k et
d oc
ĠL eg
Ġbro ken
Ġpercent age
Ġd ream
un c
Ġacc ord
Ġdefend ants
ĠThe ir
W here
Ġconf idence
Ġn om
Ġra ise
} .
Ġj u
ĠS N
Ġl ose
Ġgrant ed
Ġadv ance
Ġbe at
od ay
i ot
00 6
Ġfor g
IT H
Ġdoc uments
Ġpath way
Ð ¿
Ġt ables
Ġob ser
) =\
á Ģ
w ed
Ġfre edom
g ression
b al
ĠV er
Ġinc ub
c ial
ĠF orm
Ġunder stood
ail ed
Ġmain ly
ĠTh omas
Ġ& =
Ġwor se
ĠF in
201 0
Ġaccur acy
Ġ$ {{\
Ġun known
Ġsp ring
Ġj our
Ġmanag er
Ġob lig
Ġph ilos
Ġfrequ ently
ree k
val id
Ġnot es
Ġform ula
ĠW ed
ĠOn ly
ag ger
ĠM onday
Ġviol ence
Ġmetab ol
Ġplan ning
ĠE R
Ġmin im
Ġp as
Ġp ages
Ġ$ {
ĠB ook
á ĥ
Ġr ough
ul s
x ml
ĠFl or
Ġrelig ious
k ins
ĠB rown
Ġstat ements
Ġ ion
Ġf uel
Ġeven ing
Ġe gg
Ġp y
ad ow
Ġprot ocol
Ġab use
ĠOn ce
Ġarriv ed
ĠW H
AA AA
ĠRuss ian
Ġreg ulation
å ¤
est ed
Ġ6 5
ĠWilli am
Ġsecond s
]-- [@
Ġadminist r
Ã ¸
Ġdel iver
G C
Ġproced ures
Ġchar ges
k l
ore t
Ġt or
Ġgu arant
m ain
Ġp p
qu ery
Ġinter vention
Ġadv anced
Ġc aught
el se
am ber
U D
Ġappro aches
Ġto m
g ers
Ġcomp are
Ġenh ance
Ġcons ult
g ithub
Ġc art
B P
G A
ĠG old
Ġopp osite
Ġappear ance
end if
Ġ5 5
Ġs ale
ven ue
Ġcrit ic
ro ke
Ġdep ending
}} ^
ĠGovern ment
Ġconsider ing
ç Ķ
ic ago
b id
ant a
Ġb ool
Ġown er
Ġmanag ed
S olve
ack s
ĠC r
Â ¶
Ċĉĉĉĉ ĉ
ĠC I
OU T
g i
Ġus ual
Ġobserv ations
Ġad vert
Ġtele vision
Ġqu ery
c ut
Ġc a
Ġse at
Ġpull ed
Ġmod ified
g ent
Ġc ort
Ġcomp etition
im ately
Å ¡
ĠF ield
Ġstim ul
Ġexp osed
201 1
Ġa u
g t
s or
pos ed
ĠS l
ĠIntern et
ost er
se ct
Ġill ustr
Ġsens itivity
d ir
Ġgo als
Ġacc ident
Ġconf lict
Ġdo ctor
Ġ1 20
Ġv ess
ut ely
Ġc os
Ġconcer ns
Ġb ag
u y
Ġswe et
Ġcons c
Ġrec overy
Ġst ick
Ġt ill
Ġacc um
ĠAn n
Ġp od
Ġr is
Ġsc r
Ġsc ores
Ġlimit ations
Ġind epend
ed ia
Ġord ers
Ġclust er
Ġresult ed
Ġanal og
Wh ich
Ġst rain
m i
Ġal le
Ġjob s
urs day
Ġdist ingu
Ġwill ing
ĠU N
ak ers
k o
ott en
ell ular
Ġassum ing
ent h
C F
Ġb le
ĠS D
est ic
b our
ol t
Ġe cho
Ġr ac
Ġg ate
ĠW ill
OR T
or gan
) }\
ist an
IT Y
cret ion
Ġend ed
ĠC T
pro cess
; \
ĠLou is
Ġexperien ced
Ġtri p
Ġinvestig ate
Ġconstit ution
ir al
ĠA S
if ferent
M D
) ^{
Ġjo ined
ri p
Ġnumer ous
Ġap art
P re
ĠĠĠĠĠĠĠĠĠĠĠĠĠĠĠĠĠĠĠĠĠĠĠĠĠĠĠĠĠĠĠĠĠĠĠĠĠĠĠĠĠĠĠĠĠĠĠĠĠĠĠĠĠĠĠĠĠĠĠĠĠĠĠĠĠĠĠĠĠĠĠĠĠĠĠĠĠĠĠĠĠĠĠĠĠĠĠĠĠĠĠĠĠĠĠĠĠĠĠĠĠĠĠĠĠĠĠĠĠĠĠĠĠĠĠĠĠĠĠĠĠĠĠĠĠĠĠĠ ĠĠĠĠĠĠĠĠĠĠĠĠĠĠĠĠĠĠĠĠĠĠĠĠĠĠĠĠĠĠĠĠĠĠĠĠĠĠĠĠĠĠĠĠĠĠĠĠĠĠĠĠĠĠĠĠĠĠĠĠĠĠĠĠĠĠĠĠĠĠĠĠĠĠĠĠĠĠĠĠĠĠĠĠĠĠĠĠĠĠĠĠĠĠĠĠĠĠĠĠĠĠĠĠĠĠĠĠĠĠĠĠĠĠĠĠĠĠĠĠĠĠĠĠĠĠĠĠ
ĠRuss ia
Ġh all
Ġequ ations
Ġd il
clus ive
Ø§ ÙĦ
Ġwalk ed
Ġent itled
ry pt
Ġcandid ate
s in
^+ ^
Ġphen omen
Ġf uck
he ight
Ġpie ces
im er
rape ut
Ġrese arc
Ġdeterm ination
Ġo rient
il ty
** ]{}
Ġide al
Ġre plic
and a
/ -
Ġ 00
Ġp ush
ole an
ĠH IV
Ġrest aur
ĠOff ice
be red
S ervice
Ġn ine
Ġf ans
od ed
Ġqu i
the n
Ġg rav
Ġar ter
ĠW indows
Ġstand ards
Ġexp ansion
Ġd uration
us cript
Ġ3 00
Ġsuit able
Ġpurch ase
Ġevalu ate
Ġform al
M essage
G en
ater al
Ġm ine
Ġrecogn ized
Ġimpos sible
omet ric
_ ,
Ġd raft
on ly
Ġpl ot
end ment
ĠÐ¿ ÑĢ
Ġwatch ing
Ġpre val
ĠO pen
Ï ī
Ġb oot
Ġhe m
ĠSc ott
Ġdis pl
Ġox id
Ġgu ard
Ġhum ans
R ev
ĠF R
ĠT R
Ġwar rant
nes day
Ġvirt ual
Ex ternal
Ġb ug
( {
com ple
Ðµ ÑĤ
pro duct
F e
ĠL u
Ġphot o
li k
Ġconcern ed
Ġassess ed
Ġl uck
Ġm ission
ĠH el
C K
Ġra re
âĢĿ ,
Ġf ill
w ar
Ġ{ {\
Ġcon clude
an ning
sc ale
ĠB re
Ġpar allel
ug in
ĠAfric a
ĠM ass
Ġsett ings
Ġbi ological
Ġadv ice
B ox
Ġs and
G E
ĠÂ «
i ples
and on
S ince
Ġ4 7
Ġ19 99
ien ces
ult ure
"} )
Ġbound ary
ren cy
Ġcr is
ort ed
Ġbe coming
t w
3 00
d el
ic ious
L ine
Ġclaim ed
G e
Ġsp oke
Ġwid ely
Ġkeep ing
Ġbud get
b en
ĠE arth
ain er
ĠR ef
Ġdemonstr ate
Ġkn ock
IN E
Ġjurisd iction
f ess
T e
Ġfor t
P U
Ġaccom pl
ad ian
Ġcons ent
Ġrem ark
E nt
Ġcon ven
aut hor
Ġfavor ite
Ġ4 9
we b
Ġs ister
Ġtri als
am i
j u
Ġp et
Ġun able
Ġdis k
ĠS olve
ne ver
Ġgal ax
Ġtr ouble
z eta
Ġre produ
Ġad m
Ġr ats
Ġsignal ing
Ġveloc ity
av en
t ra
Ġstatist ical
us iness
Ġaccept ed
ĠT or
Ġ4 1
ij ms
S R
ĠM er
Ġhe nce
s rc
Ġfam iliar
Ġspec ified
Ġdec ide
ĠCar ol
Ġd ress
Ð¸ ÑĤ
Ġdat as
Ġr oute
Ġne ck
Ġthere by
Ġpop ulations
Ġj ava
Ġhor iz
} =\
Ġvari ation
Ġdom in
**************** ****************
Ġn odes
ĊĠĠĠĠĠĠĠĠ ĠĠ
ĠB ur
Ġth r
Ġl oved
Ġend s
P ol
iv ation
um s
ĠB ill
Ġsupp l
ĠĠĠĠĠĠĠĠĠĠĠĠĠĠĠĠĠĠĠĠĠĠĠĠ Ġ
Ġdis p
mod el
Ġtem plate
L a
ĠF ree
Ġm and
ĠAp pe
ĠN O
Ġ4 3
Ġpe pt
Ġst rict
ott ed
T A
Sim plify
Ġconst raint
ĠD ec
Ġatt ached
Ġre vers
rodu ction
Ġrec ording
Ġwor ry
Ġalcoh ol
ern el
ĠG al
Ġinvol ving
AG E
ĠJes us
ĠF ederal
)* (
M ore
Ġc ab
l u
R ef
Ġst ret
Ã© e
Å Ĥ
Ġcont ribution
Ġtechn ical
ĠD en
velop ment
Ġo s
leg al
idel ines
Ġo d
Ġrelationship s
E nd
Ġp ed
Ġco f
Ġr ub
c p
ar l
ch ing
p onse
en ance
gr ade
Ġs an
b ug
Ġmur der
Ġenc oun
Ġsee k
ro ad
ĠF IG
w ing
ell er
iver se
Ġc ogn
M r
Y PE
ĠS ing
yt ic
Ġman uscript
Ġf ellow
N O
ĠT imes
cd ots
å Ĳ
ect or
? âĢĿ
M C
Ġd ans
ĠS erv
Ġk ne
Ġinter val
ĠRich ard
ĠZ e
Ġhel ps
Ġcomm itted
Ġcustom er
Ġpers ons
ĠW ork
Ġ} ;
Ġab und
ogen ic
hen tic
Ġsuggest ing
% .
Ġfor get
Ġres ource
Ġrad iation
ĠSe cret
Ġcommon ly
L ook
Ġtell ing
Ġad ults
(\ [
1 10
f alse
ĠI ran
st s
Ġg ro
ĠR ad
Ġcol le
Ġimprove ment
ĠH ence
ĠFlor ida
Ġdeg rees
ap ed
S ystem
Ð ·
Ġapplic able
ĠP lease
Ġs oul
Ã¡ s
Ġen force
Ġox ygen
def ined
======== ====
Ġf le
à ¹
Ġvill age
Ġart icles
Ġ ì
oc hem
Ġtr uly
char ge
w ater
}} {\
S ource
ive red
Ġ1 50
t ag
ĠPar is
Ġ Ñ
Ġlim its
Ġcontin ues
Ġbr anch
if ies
mon th
Ġframe work
Ġh ole
Ġaspect s
in et
Ġas sembly
clus ions
201 8
Ġs ought
Ġph arm
th m
Ġmi xture
Â §
ĠR ule
othe rapy
p hen
br id
Ġslow ly
Ġindic ating
AS S
Ġdep artment
ĠM ont
ĠL ife
ĠS aturday
Ġcitiz ens
et ime
B U
ruct ure
Ġturn s
ĠInst ead
in v
ath y
Ġpolic ies
Ġwalk ing
Ġad equ
Ġpot entially
Ġconvers ation
ĠĠĠĠĠĠĠĠĠĠĠĠĠĠĠĠĠĠĠĠĠĠĠĠ ĠĠ
Ġcourt s
Ġpay ment
t arget
Ġpart ner
ĊĠĠĠĠĠĠĠĠ ĠĠĠĠ
P art
Ġs ounds
c f
ac ent
om al
il ton
ĠS H
az ine
Ġcell ular
or ation
Ġax is
P lease
Ġa st
% %
Ġaff ord
us hing
ĠIt s
et her
ĠM S
he rent
ĠI r
i ary
Ġh at
200 9
L S
Ġtest ified
ac iÃ³n
Ġp il
Ġcon j
Ġmass ive
F S
C all
Ġstart s
Ġper man
op hy
Ð¾Ð »
Ġdynam ic
Ġsign s
opt ion
st ar
ĠF our
Ġmar riage
el i
Ġdim ension
Americ an
ĠTw itter
Ġabsol ute
Ġchalleng es
Ġst ability
W ho
$ )
y er
n ames
Ġth reshold
Ġcommun ities
ĠS and
ĠU se
Ġmort ality
Ġc m
m id
ars h
Ġsec ure
el a
Ġan s
Ġpart ial
Ġaccur ate
ĠW here
Ġ199 0
ĠJohn son
ĠM ax
Ġ4 6
Ġh al
Ġthought s
Ġdep art
Ġfl ag
or al
T wo
Ġp rices
B ar
m g
Ġinterpret ation
Ġd ys
l ayout
ad ed
ĠG ive
Ġtyp ename
r ine
Ġrel ax
Ġass igned
Ġpoly mer
ĠJ ose
Ġn ative
Ġrec ip
hel ial
Ġac ute
Ġh ur
um ns
00 7
Ġrepl aced
Ġnecess arily
Ġso le
Ġinstr ument
Ġfundament al
ud d
Ġf aster
Ġlink ed
Ġdi vers
B R
Ġc ash
Ġcharacter ized
Ġtiss ues
Ġcon cluded
Ġor al
ri or
ĠT uesday
ĠS il
Ġlar g
č Ċĉ
Ġcl imate
ĠD O
Ġf o
d ep
ĠC E
f ast
u z
Ġm RNA
Ġme rely
ant e
ĠSt r
Ġphot os
Ġdefin itely
Ġde fe
Ġflu ores
ĠB ig
Ġpict ures
ar ks
Ġann ual
Ġfac ilit
Ġmicro sc
b uild
Ã Ĥ
Ġf old
Ġdepend ent
Ġbur den
Ġimm ig
Ġsy nd
ĠFranc is
Ġl icense
Ġmet ric
on ym
ĠAr ch
Ġvis ible
he ther
Ġpro lif
L C
Ġf an
Ġsc ope
Ġv itro
E xt
ĠP eter
V ert
ĠF ore
Ġsens itive
Ġinst ructions
Ġ" (
IN T
Ġacc el
\] ).
n av
Ġclos er
Ġsmall est
Ġpro test
ent ed
Ġdec ades
Ġinter act
du le
ĠP A
^ -
200 8
Ġpl astic
Ġthous and
ER R
N F
ĠI T
Ġimpl ies
ĠI V
j i
ĠE X
P I
ap se
ĠE r
Ġassum ed
Ġ5 6
Ġla unch
Ġlist en
ribut es
Ġg ent
Ġst ack
im a
ĠIs lam
Ġc ra
ĠAn other
bl ing
Ġg ap
Ġinstall ed
Ġhous ing
ĠC ap
Ġatt end
Ġpoint ed
Ġfl av
ĠĠĠĠĠĠĠĠĠĠĠĠĠĠĠĠĠĠĠĠĠĠĠĠ ĠĠĠ
ev ent
Ġen able
ig er
: \
ĠPro ject
Ġb are
ampions hip
add ing
Qu ery
und le
ound ed
om er
ĠL ong
Ġprov ed
Ġcon ference
but ton
Th anks
Ġdynam ics
Ġprinc iple
Ġfun ds
Ġ199 8
Ġp ix
Ġfab ric
ĠCh icago
Ġeffect ively
ic ular
Ġre act
ĠE nd
Ġ5 2
m osp
ial s
c at
Ġsim pl
ĠT ype
ĠIn deed
Ġhe ro
ĠP o
à ¦
Ġun ion
Ġs qrt
Ġs plit
Ġarbit r
Ġra il
\[ [@
f old
Ġlay ers
Ġpartic le
Ġantib ody
St ream
Ġmole cules
Ġ ÏĢ
A m
Ġv en
en ess
Ġwall s
AC K
n el
d ict
Ġobject ive
Ġattack s
Ġt ail
Ġgu ilty
Ġre verse
pl oad
Ġsupport ing
Ġv ot
row s
EN D
Ġv ision
& =
Ġm aps
B ack
Ð°Ð »
ĠAfric an
Ġcomm ission
Ġocc asion
Ġed itor
ress ive
Ġch annels
form at
ar ia
Ġco h
Ġlarg ely
Ġfe es
Ġ ĊĠĠĠ
Ġstrateg ies
Ġpredict ed
Ġr ig
Ġput ting
Ġ ÑĤ
Ġshe ll
Ġpass ing
Ġident ification
Ġwas te
ĠâĢ ¦
ious ly
ĠSt ar
Ġf ashion
Ġper m
ĠS ol
! --
Ġres on
ER E
ĠC le
Ġinvest ment
Ġto ler
Ġfe at
ire ctor
ĠI P
Ġh un
d ist
Ġreal ized
ĠÂ £
Ġb ath
p g
ĠO N
H z
Ġcont ribute
ok ed
Ġinst ant
ollow ing
Ġlas er
ĠDef endant
Ġ[ ]
Ġmess ages
ĠCent ral
Ġrepl ace
line ar
č ĊĠĠĠĠĠĠĠĠĠĠĠ
ĠJ o
ott om
Ġad mitted
u rop
ĠW al
ft ware
Ġconsider ation
Ø ª
ĠL i
Ġemploy ee
Ġs ight
int on
pl ant
Ġ7 2
Ġrad i
athe red
cont in
Ġinform ed
ĠL og
12 0
Ġsc hed
An other
12 8
Ġestim ates
Ġep it
E V
** ,
i pping
y an
Ġcont em
Ñ İ
Ġpur su
l ife
In d
Ġint ention
F IG
Ġ199 7
et ing
Ġcomp osite
Ġmat ters
Ġexp ensive
ĠE U
ĠTh ursday
ĠApp le
lect ric
Ġarg ues
? ?
ĠN av
ef fect
Ġse gment
Man ager
Ġt it
ont al
Ġsu c
Ġgrow n
ĠS k
Ġb low
Ġdro pped
Ġz one
rapeut ic
in ite
oun g
med ia
ĠVir gin
Ġc ities
. </
ĠC ount
ch ron
OR D
s en
Ġclos ely
Ġbas eline
ĠPro gram
ĠB ack
Ġb odies
Ġscient ific
cle ar
Ġwe ar
St art
Ġfl oat
Ġcl ar
Ġ5 4
ĠN one
Ġsim ult
ogen esis
con f
z er
Ġo kay
He y
ul ed
Ġf et
ne g
Ġf ont
E very
Ġex ceed
Ġlegis l
se ud
ass ert
ane ously
ĠS ociety
Ġhon est
equ iv
Ġw arn
ĠÐ ¼
Ġdis put
ri ev
Ġw ww
Ġri ver
H S
ĠC opyright
Ġrequire ment
Ġas ym
CT ION
ul ating
Ġspe aking
s d
Ġbo ys
, _
per t
ĠJust ice
Ġrespons ibility
Ġem ission
II I
in te
br idge
the less
ack et
S ON
ĠJ ones
ribut ions
Ġest ate
ĠH y
r ac
Ġhundred s
ĠMin ister
en u
Ġobserv ation
n i
Ġdanger ous
Â ½
Ġr id
Ġdef ic
m L
Ġcoll abor
Ļ ª
Ġ5 1
4 00
Ġdis appe
Ġamount s
Ġwindow s
Pro perty
Ġbe am
Ġch art
Ġdes ire
is ters
um er
ĠWed nesday
miss ions
Ġprov ision
Ġpract ices
Ġs ick
Ġshe et
Ġbl ocks
p et
Ġexpl ore
ĠIn formation
b uf
Ġplaintiff s
Ġpl ain
u um
Ġnot iced
font s
Ġout er
ĠCh ild
Î ¬
out s
Ġstruct ural
Ġterm inal
ĠM ount
Ġconsum ption
D NA
Ð½ Ð¾
Ġautom atically
Ġse ed
w er
ĠM el
ĠE D
ĠÎ ²
Ġfund ing
Ġo ch
Ġc ards
ĠAr ab
Ġover l
ĠP H
Ġexam ination
ĠĠĠĠĠĠĠĠĠĠĠĠĠĠĠĠĠĠĠĠĠĠĠĠĠĠĠĠĠĠĠĠĠĠĠĠĠĠĠĠĠĠĠĠĠĠĠĠĠĠĠĠĠĠĠĠĠĠĠĠĠĠĠĠ ĠĠĠĠĠĠĠĠĠĠĠĠĠĠĠĠĠĠĠĠĠĠĠĠĠĠĠĠĠĠĠĠ
ĠR oman
Ġac adem
L O
ĠB as
Ġl ic
" ),
Ġint ra
ĠF re
ĠM ethod
Ġsuccess fully
C ome
Â Ĥ
b el
Ġgluc ose
ne xt
Ġass istance
Ġk ick
ĠB et
Ġf er
H is
e per
rehen s
Ġdra wn
Ġp ig
Ġproport ion
} )\
no on
ĠD ev
Th ank
Ġoff ense
st d
Ġdiab etes
min imal
s up
ĠS ocial
Ġl ig
Ġwrit er
a fe
Ġneg ot
Ġoff set
Ġemploy ment
Ġviol ation
dis play
Ġs ke
Ġcons ists
Ġsol ve
Ġfin ish
B M
ap ache
ĠSt and
m ann
od ds
- (
Ġsudden ly
Ġst em
sc rib
Ġjust ice
Ġv ivo
im g
Ġp u
Al though
č ĊĠĠĠĠĠ
ir a
s g
Ġinn ov
r l
Ġpre ced
Ġ1 01
ĠJ im
ĠRev iew
on a
Ġ199 6
Ġfig ures
Ġarr ang
ĠChar les
Ġsee king
Ġaud ience
N umber
rib le
Ġv on
Ġexperien ces
ĠIs land
ĠWh o
Ġsignific ance
Ġ _{
R ight
j son
B ecause
Ġc ars
Ġm argin
Ġre form
Ġpol l
ĠP y
Ġmil k
ĠE st
âĢĶ âĢĶ
Ġve get
Ġsk y
Ġsens or
G u
Ġsp aces
f riend
Ġl en
Ġem bed
Ġsen ior
in ates
t ab
ĠP CR
B r
Ġcaus ing
* /
ĠGr and
Ġsub t
Ġp it
U s
Ġv ast
D et
Ġp H
Ġl ift
Ġsome what
ĠF ile
f it
Ġbi as
Ġredu cing
R em
Ġal ign
Ð¾Ð ¼
N ote
v in
Ġsupp lement
a o
fl u
ĠD u
}} ,
N N
Ġapparent ly
A Y
Ġn erv
Ġcomp ound
ãģ ¾
w rit
Ġh o
Ġneur ons
Ġh urt
Ġc u
if ts
Ġb rown
pro te
ic ation
cont rol
Î¿ Ïħ
Ġrecomm ended
un it
Ġinit ially
ĠM ur
Ġsupport s
av el
Ġintegr ated
V D
ĠF ed
Ġfam ous
u int
igh ter
ĊĊ ĠĠĠĠĠĠĠĠĠĠĠĠĠĠĠĠĠĠĠĠĠĠĠĠĠĠĠĠĠĠĠĠ
Ġact ing
w est
ens us
z ing
er ior
' ).
Ġdam ages
ig an
Ġpract ical
duct or
Ġar my
Ġelect rical
S pec
tem plate
Ġcl ients
Ġdel ivered
iv ated
0000 00
isc uss
Ġaccount s
Ġv ul
Ġm ic
Ġat mosp
Ġp airs
Ġprim arily
m essage
pro p
B D
]^ .
Ġde pos
Ġimag ine
ĠL and
Ġcomp act
p ng
Ã ĳ
Ġf ing
Ġremov al
Ġtarget s
ur ally
Ġinter net
Ġcof fee
O H
Ġkit chen
Ġturn ing
Ġsub set
) |
Ġsm ile
st atus
ĠT em
k es
u able
ad os
od er
æ ĸ
Ġwe ather
} |
Cont ent
Ġprom ote
erm an
Ġloc ations
ob e
ĠJ ava
Ġa id
Ġdes k
ĠS pe
Ġtell s
Ġren der
ro t
200 7
200 6
document class
Ġ[ [
f ind
Ġresearc hers
d at
Ġtherm al
ĠC OM
Ġâ ī
Ġrepresent ative
medi ate
Ġhot el
Ġfight ing
Ps i
ict or
Ġsu gar
r if
G ood
h ab
Ġsur g
al ign
Ġprincip al
v ol
$ {
ys ym
ĠAt l
n ull
Ġfl ight
Ġdescrib es
de c
}\ ,
. -
a ft
z o
Ġdis cretion
Ġinhib ition
B efore
mod ule
Ġprop ag
Ġclos est
M M
Ġamaz ing
Ġg ender
at ural
ĠC amp
ha ust
Ġhe t
æ Ī
Ġmechan ical
ĠL ee
Ġdisplay ed
Ġopt imal
Ġenh anced
h igh
at i
sc r
t ed
Ġd ust
Ġst ages
Ch ar
ĠArm y
Ġconcer ning
O ther
ole cules
Ġmonitor ing
Ġpers pective
ĠR oad
Ġp ump
Ġadopt ed
Ġpolit ics
i ological
Ġs ir
Ċ Č
Ġ5 3
E l
ik i
ĠB ob
Ġfeed back
ĠI F
P oint
S O
ĠM ath
Ġer a
Ġb ought
Ġinvol ves
Ġ9 9
Ġsp r
Ġco ach
Ġf ant
Ġinf o
L ast
ĠPro te
N et
Ġl ies
Ġal gebra
ĠMart in
}{ -
l ang
h is
ĠY OU
** (
Ġsurround ing
ce an
Ġrep air
ort s
Ġorgan ic
Ġstra ins
ĠMed ical
Ġdr am
n ut
ĠÐ½ Ð°
ĠS ign
Ġhad n
se arch
ĠS O
Ġo k
gen er
L R
ĠE qu
Ġman age
Ġmin imal
hy dro
Ġext ends
ĠF ire
ist a
ĠB E
Ġj a
\* \*
set length
J ohn
Ġcom o
Ġch ick
ost on
we red
l ines
Ġdem ocr
ell ar
Ġantib odies
ĠR o
ĠL os
> (
) +
Ġde ploy
Ġd ual
gree k
Ġla un
Ġreg ister
Ġbig ger
sens ors
wide hat
Ġse g
w a
ĠLem ma
Ġre con
ĠWilli ams
ĠN on
cre en
Ġprom ot
Ġprof ession
Ġs now
Ġh idden
Ġw ed
ak s
st at
Ġunc ertain
F O
* ^
Ġbehavi our
ĠMc C
Ġw rt
Ġesc ape
sum mary
we et
Ġse ctor
up s
Ġf ly
in ating
cl ient
Ġcontain er
li ament
Ġl ots
ĠA v
Ġcarry ing
ĠRepublic an
Ð ±
Ġwe alth
Ġcou pling
Ġsub s
Ġany way
om ething
ĠÐ ·
Ġn u
] $
Ġpur s
ĠMus lim
ams math
ĠW all
Ġbe ar
ĠH uman
ĠU s
Ġhab it
Ð¾Ð ´
Ġst one
Ġsu f
il a
un te
am ss
in ux
Ġresid ents
Ġde let
Ġexplan ation
}^{ (
Ġhor se
P o
end ants
Ġconstruct ed
w s
Ġspat ial
ens ed
amss ymb
bs y
Ã¼ r
Ġso il
s ome
rs fs
math rsfs
Ġinj ection
Ġcont ro
ĠI ra
ff ff
by te
ams fonts
W H
Pe ople
Ġtum ors
Ġmaint ained
Ġabsol utely
Ġlow est
æ ĺ
ĠC ath
Ġnew sp
ams bsy
Ġre nt
Q U
Ġcharacter istic
Ġinstit ution
Ġweek end
( [
Ġv ide
Ġco ast
ĠO ffic
arg s
el ing
ri ers
Ġch apter
val ues
Ġplan et
was ysym
up greek
Ġy ellow
ĊĊ ĊĊĊ
Ġr u
idem argin
Ġmet ast
odds idemargin
Ġfl ux
Ġcre ation
Ġr ational
Ġpick ing
Ġs ad
ent ry
ĠA cc
IC E
Ġmed ian
Ġdriv en
Ġ199 5
az e
But ton
Ġdeb ate
con text
ay ers
Ġdecl ared
or i
Ġcl ock
C V
Ġm ail
Ġorgan izations
call ed
Ġcris is
Ġt asks
V ersion
Ġ" \
em a
ĠH ospital
00 8
Ġam ino
Ġg rew
Ġdisc overy
is a
ab b
A g
D B
Ġrem ote
ut il
ĠSen ate
AB LE
Ġo dd
Ġmen u
ĠJer sey
all ow
Ġb an
Ġweap ons
Ġ ---
ĠP ower
D id
Ġdoll ars
Ġo l
Ġyou th
Ġstr ange
ish ment
Ġdeath s
âĢ ĺ
Ġdeterm ining
ĊĊ ĠĠ
Ġorig inally
Ġcult ural
Cont roller
Ġis land
Ġident ical
B ase
Ġst ead
E ng
Ġw est
Ġsuper ior
ĠO ld
f oot
ĠP et
ĊĠĠĠĠĠĠĠĠĠĠĠĠĠĠĠĠ Ġ
ach ment
Â ®
Ġev ident
S m
Ġemerg ency
Ġclass ical
ov a
ĠMay be
or ters
al d
ĠC L
al i
ir able
Ġf ro
Ġd inner
Ġaccord ance
Ġsur ve
Ġknow ing
Ġprom pt
ian a
Ñ Ĩ
u v
as tern
c ers
Ġb ars
ĠHen ry
Ġdifferent ial
Ġreal ize
ĠT im
15 0
200 1
00 9
ĠN E
qu are
Cl ient
ust er
om atic
Ġ5 9
Ġsh op
Ġb ind
Ġrecogn ition
In put
P ost
Ġdis order
Ġb inary
Ġw inter
ĠMex ico
Ġ5 7
Ġm ask
ĠAP I
Ġemot ional
m atch
Ġimmedi ate
Ġ\ >
Ġw ine
Ġpreval ence
O ff
B E
on ents
Ġap opt
Ġs ports
ĠW ood
Â µ
Ġre ct
Ġcl oud
A F
ri um
Ġprepar ation
Ġimplement ed
Ġfind s
ĠS ir
Ġlaug h
Ġprefer red
\] ),
Ġb io
c ss
Ġext end
ĠN ever
A ction
ist ing
Ġcontribut ions
Ġm ent
Ġprom ise
fe ctions
Ġdiv ision
S cript
. âĢĻ
ĠÎ º
sh ow
G l
ĠE duc
//////// ////////
AT A
D r
Ġin equ
r ons
Ġepis ode
ic ate
Ġcal c
Ġo g
u an
D M
Ġs ed
ĠSec urity
ann a
Ġform ing
Ġwat ched
reat ment
Ġexc ited
Ġcateg ories
I E
ĠE xt
à ®
Ġenem y
Ġafter noon
Ġrespect ive
omet imes
Ġt rend
Ġarg ue
ĠCh ief
Ġauthor ities
Ġth or
Che ck
ĠTh ree
Ġwor st
Ġsynthe sis
ĠH ome
n c
ĠJe ff
Ġsepar ated
Ġfl o
str ong
Ġhelp ing
ĠF il
Ġt aste
Ġhom es
Ġreg ression
è ¿
Ġhypothes is
Ġdi ameter
Ġche st
Ñ Ī
Ph ys
Ġv it
ter ior
Ġrapid ly
ĠD C
the re
iat ric
Ġobvious ly
Ġopportun ities
Ġt ip
Ġess entially
Ġy e
roll ed
Ġcirc le
Ġdog s
Ġ1 000
Ġconsequ ences
Ġsp ending
Ġsus pect
) ]
ĠAN Y
01 0
n ger
Ġtot ally
ĠSo ftware
b ro
ĠJ ournal
ĠY et
b u
R el
Ġcorrect ly
l ie
le ments
Ġfra ud
otyp es
Ġvert ical
Ġm ob
ever al
Ġ\ {
P M
Ġe ating
Å ¾
Ġarg ued
fra id
ex pected
Ġgen ome
Ġanc ient
Ġpath ways
b efore
Ġme at
n umber
pro perty
Ġ5 8
Ġpow ers
Ġmarket ing
1 000
Ġter rit
Ġg ift
is er
Ġult imately
b les
Ġg ast
Ġcent re
ãģ ĭ
P at
s plit
ĠB Y
D ec
D C
and roid
Ġn m
ev en
i pt
Ġthe oret
ĠAddition ally
Ġoper ators
Ġoff ering
Ġ ÑĢ
Ġ9 6
Ġclass ification
sc he
Ġper ipher
Ġexec utive
Ġ4 00
ĠC up
Ġneighbor hood
Ġ20 20
ĠM ult
Ġsc al
Ġansw ers
Ġden ote
r ition
ĠCont rol
Ġp in
p ower
Ġ19 80
Res ult
M B
um es
ĠV iew
Ġcandid ates
Ġdif fer
Ġf inger
Ġexam ine
Ġc ro
s ign
Ġfac ilities
C IT
Ġcur ves
Ġf urn
Ġfe els
f d
Ġbuild ings
Ġp ip
Ġmut ations
bl og
Ġ1 10
Ġshe l
an ol
Ġa fraid
Î Ń
200 5
Ġsurg ical
ĠO bject
y st
Ġtemper atures
Ġinc red
v as
Ø ¯
Ġass ign
} +\
Ġper mission
Ġshould er
Ġe igen
och ond
ĠJ ul
ĠĠĠĠĠĠĠĠĠĠĠĠĠĠĠĠĠĠĠĠĠĠĠĠ ĠĠĠĠ
Ċĉĉĉĉ ĉĉ
ĠH aw
Ġass ault
Ĥ ¬
ĠPl an
ĠPro v
id en
Supp lementary
} /
cent er
Ä ħ
r ants
Ġcapt ure
ĠR T
++ )
ĠH T
ig e
Ġsynd rome
Ġneut ral
Ġh ate
ĠTh ose
Ġprinc iples
ĠS U
Ġyou nger
S u
s i
Ġleg s
ÐµÐ »
ut ch
our se
y les
ĠP an
out put
Ġsup ra
Ġin qu
Ġas ide
ĠIra q
Ġcare fully
ins on
] );
Ġintellig ence
Ġtrans formation
Ġsub mitted
B u
** *
irc raft
Ġcryst al
Ġs oc
Ġe ast
Ġpost ed
Fr ame
ĠL ib
ĠP ut
Ġscreen ing
id ents
p df
ĠI C
ĠW ITH
G ET
Ġf ruit
ĠÂ »
O kay
Ġthe rapeutic
o ir
Ġref used
Ġc oc
Ġex haust
Ġrem ind
Ġacqu ired
an ish
c ard
ly mp
ta x
s pe
Hand ler
Ġrec over
r at
Ġed ges
Ġres erv
is ely
Ġupd ated
N ext
Ġsuc ceed
Ġbi om
M on
Ġra w
n ed
um a
D P
ĠGe org
Ġdr ag
Ġpublic ation
12 5
Ġra in
er k
q quad
S YS
Ġlog ic
] [@
Ġpost s
Ġch amber
iv a
Ġcar cin
C ons
O B
ad or
Ġsurpr ise
sk i
the y
Ġrad ical
Ġ8 5
Ġf ault
ars er
ĠDiv ision
G T
n ic
] "
f ill
Ġal ive
Z E
Res ults
Ġbusiness es
Ġw ra
P CR
ob j
ãĤ Į
ast s
Ġinit i
Ġal k
m ethod
Ġ\ *
Ġkind s
il ly
Ġcommit tee
Ġ199 4
Ġpl anned
ox y
p ed
es ter
Ġs od
Ġdis orders
Ġour selves
ĠD ie
Ġmaint enance
Ġinc idence
Ġf aces
Ġsome where
av ed
ĠC all
Ġhapp ening
Ġcr ack
Ġhelp ful
Ġcount s
Ġor th
Ġg est
ĠTh anks
Ġassum ption
Ġbro ke
Ġbatter y
O b
Ġp apers
Ġrot ation
av as
Ġc ov
ĠR ock
ĠVirgin ia
Ġwonder ful
P a
l ar
t wo
Ã© n
Ġg all
ament e
if er
ĠA ma
C reate
ĠL ake
crib ed
Ġwe aring
io x
Ġtop ic
i ro
Ġt ube
Ġnorm ally
ĠC S
ĠH ot
Ġag greg
Ġas c
Ġspect ra
on ia
Ġcont ents
Ġveh icles
Ġ rib
Ġdisc over
Ġread er
tre ated
Ġe in
Ġserv ing
Ġ: )
Ġpro hib
ĠAc adem
Ġsur faces
ĠAn t
ĠChe ck
ĠN ame
Ġm as
ĠC apt
Ù ĩ
Ġsupp ose
ic ide
200 4
N C
h ar
Ġapp lying
AS E
Ã¡ n
Ġcon version
Ġattempt s
ser ver
00 000
ident ial
Ġin fer
Ġins ulin
Ġ& \
Ġn urs
Ġ Ø§ÙĦ
Ġrecogn ize
Ġmor al
oid s
ĠChrist mas
l oc
Ġcopy right
Ġman ip
w hen
Ġdep ression
Ġjour ney
m ond
ren e
b ound
Ġreg ime
OO ST
Ġro se
ĠCan adian
ĠE V
Ġtrans cription
EX T
OC K
ãĥ ³
d em
Ġpat ent
Ġext ensive
"} ),
ĠCol or
| |
Ġcontro vers
Ġpres um
atter ing
sc ill
Ġinj uries
Ġsh arp
Ġg el
le ep
AR R
Ġcomp rehens
Ġsymb ol
ĠO S
p rivate
xi ety
Ġab andon
Ġprolif eration
rol og
ĠServ ices
r h
Ġhistor ical
H el
Ġtransfer red
}} ^{
ĠL o
% ),
K e
Ġd os
math sf
] ]
Ġro les
å ľ
St atus
Ġmom ents
C OM
Ġvers ions
Ġfac ility
Ġbo ost
h ome
em ia
Ġbeg ins
ĠÐ ±
g ence
ĠHam ilton
ĠApp ellant
og ether
25 0
f ortunately
Ġrequest ed
olog ic
Ġ6 6
ĠI g
ru ption
ĠSecret ary
Ġd as
ol id
Ġ Ïĥ
Ġwhe el
ĠĠĠĠĠĠĠĠĠĠĠĠĠĠĠĠĠĠĠĠĠĠĠĠ ĠĠĠĠĠ
Ġac ids
ĠA ri
Ġsitu ations
ĠIn terest
NA ME
ĠCor p
Ġf iber
Ġcrow d
ne q
ĠH istory
Ġcomplic ated
ĠL abor
Ġthick ness
ĠE ll
Ġt rib
M at
Ġenzym e
Ġr ide
Ġlead ership
Ġte aching
Ġs izes
ent er
Ġintegr ation
Ġacknow led
ĠJew ish
Ġn am
Ġart ist
Ġext reme
Ġcru cial
m ode
en ger
Ġread s
ort ion
gy pt
AC E
ĠB est
Ġr Ã©
Ġintrodu ce
is or
U I
Ġstand s
at tr
Ġbacter ia
Ġsong s
p op
Ġans wered
Ġcorrel ated
Ġde grad
Ġg ather
ant ed
ann er
Ġeng aged
or ne
ĠCl ub
E ven
er ry
Ġmark ers
Â Ģ
ess ions
Ġperform ing
Ġincreasing ly
ic an
ib ilities
19 99
Ġrelig ion
Ġsem icon
est ion
fl oat
Ġgu idelines
ĠMe an
Ġshoot ing
Ġprodu cing
Res ponse
Ġc av
Ġsuf fered
est ival
Ã¤ r
el ly
Ġreport ing
Ġconv iction
Ġappro val
ĠB efore
ay lor
ĠE s
}^ \
Ġdirect ory
Ġinst ruct
Ġsubstant ially
ĠP ac
Ġat h
ir us
i em
L oad
Ġ --------------------------------
app oint
fr ast
Ġsh aring
requ est
Ġrel iable
on der
Ġtrig ger
Ġown ed
ut ing
Ġcoun ty
Ġp Ã¥
vent ions
201 9
ST R
Ð°Ð º
in ical
sequ ently
ĠBrit ain
Ġle an
Ġbl ind
Ġgr ade
Ġsold iers
Ġfair ly
E CT
Ï ĩ
ĠPol ice
ap es
ĠG L
Ġ6 3
Ġl ens
LE CT
Ġ* )
ĠAm ong
Ġper mit
ĊĠĠĠĠĠĠĠĠ ĠĠĠĠĠĠ
ac er
ĠCl inton
Å Ł
ĠM icrosoft
d x
Ġsol ar
Ġcon sole
are t
co in
Ġperfect ly
Def ault
( *
e en
Ġsubsequ ently
F OR
Ġil legal
Over ride
Ġs port
) ),
Ġconsc ious
ag ues
Ġcir cul
L ayout
M ax
Ġw et
" ]
Con ne
Ġur l
Ð¾Ð ³
it ar
app end
A c
ĠB oston
Ġtreat ments
Ġadv oc
Ġequ ally
ĠCor por
ou red
Ġcogn itive
ĠOr der
Ġadj acent
á º
Ġch ose
ĠO per
b ul
Ġenc oding
T HE
Ġres c
M ar
St at
Ġsil ver
Ġsepar ation
Ġadd ressed
ty le
UR L
Ġpurch ased
ĠE rr
ĠMed ic
Ġim per
as i
ter day
Ġ$ (\
ro ot
al ty
Ġ199 3
25 6
Ġmov es
Ġle ague
Ġbr idge
ĠM en
Ġce re
Ġteac her
ĠKore a
Ġwar ning
Ġbo at
ãģ £
ĠÎ µ
cl ick
" "
ĊĠĠĠĠĠĠĠĠĠĠĠĠĠĠĠĠ ĠĠĠĠĠĠĠĠĠĠĠĠĠĠĠ
Ġfore st
st ack
Ġ6 2
N U
Ġbring ing
il ib
end e
Ġ199 2
Ġill ness
f in
ner gy
ĠR am
ĠDe velopment
00000000 00000000
200 3
ĠCarol ina
ĠAng eles
Ġm ethyl
Ġpresent ation
un icip
ap h
Ġrequest s
Ġcontroll er
ou ch
Ġal pha
Ġmanif est
ĠA ff
Ġneg lig
Ġhy brid
We b
Ġall oc
att ice
ĠV is
Ġo scill
Ġinst ruction
ĠC are
Ġmagn itude
Ġd ies
re ams
A K
Ġli ability
Ġn g
) }{
com mon
I ES
ur se
Ġindust rial
Ġs ig
au ge
Ġmill ions
Ġp ra
ĠD own
Ġ$ [
-------- -
R et
Ġfav our
Ġaud io
Ġte ach
â Ķ
Ġcomp at
Ġfe e
h ave
L D
ĠÂ µ
' $
Ġint el
O pen
ĠJ ac
Ġsav ed
Ġt ort
Ġk illing
ĠI R
Ġin fected
Ġreview ed
se cond
IN D
L ike
AR E
{ "
y es
un a
yn om
ĠM i
Fil ter
Ġany where
Ġord inary
Ġdifferent iation
Ġpl enty
Ġmiss ed
Ġcol ors
Ġm M
T em
Ġarrest ed
add r
Ġun iversity
Ġdom estic
Ã ´
Ġre in
Ġph r
Ġbet a
Ġnew ly
erm ine
Ġmin ister
Ġmi R
Ġent ertain
w ill
ĠT re
Ġcomfort able
ĠM ot
ä¸ Ģ
Ġhead s
p in
Ġqu ad
~ ,
[ "
Ġregist ered
ĠJack son
ĠC ard
ĠL ast
Ġgr id
Ġsurpr ised
amm ation
v als
Ġsim ulation
Ġval uable
n n
F ind
Ġpass word
l as
ĠL ook
Ġpol ym
ĠT op
C or
avas cript
sc ape
ĠDo es
z i
ri ver
Ġspect ral
Ġwin ning
Ġfing ers
Ġbrow ser
ĠSp anish
_ >
Ġelectro de
Ġb its
appro x
cent ury
le ctions
ĠIt alian
Ġown ers
ĠAppe als
ĠC ast
Ġperiod s
ĠPro fess
g al
} );
ast y
]{} ]{}
b et
Ġ6 1
Ġst orm
d on
Ġcou pled
Ġgr ounds
go ogle
Ġvir al
Ġpass ion
Ġintegr al
Ġhous es
ut ory
Ġbl ank
16 0
H R
ĠJ oe
ĠR om
Al so
raz il
Ġattempt ed
y cl
Ġmedic ine
ĠDemocr atic
ffic ients
Ġcomp osed
Ð ³
per ties
Ġbelie f
Ġperman ent
Ġ$ -
Ġcol umns
Ġl ad
ug ht
Ġreg ional
Ġ6 8
ãģ Ĩ
Ġconsequ ence
ĠDes pite
Ġsim ulations
not e
Ġded icated
Ġrad ius
ĠG R
ĠAustral ian
. ;
Ġcont ributed
Ġhydro gen
ĠS M
Ä ĩ
Ġun us
Ġgent le
ĠÃ ¤
\ ^
Ġindu ction
Ġa ircraft
] \
Ġroom s
Ġadv ent
Ġsuff ering
Ġclust ers
s ur
m ult
-------- --
Ġ6 7
ĠV ictor
Ġlabor atory
ĠD irector
agn etic
Ġcut ting
Ġre actions
Ġte eth
Ġround ed
ĠIt aly
| -
Ġstri ke
ĠS P
Ġdec ade
in ction
Ġset up
Ġpr oud
Ġst roke
IG HT
Ġob st
> ,
uc ks
ĠF ind
ed ef
Ġcor on
Ġtr uck
B O
Ġstat istics
Ġdivers ity
0 20
ex ec
act ic
Ġgl ad
Ġtrans action
ĠS ar
-------- ---
Ġrepresent ing
Ġbus y
$ _
w ho
Ġinstit utions
Se lect
Ġpro gression
Ġmod es
Ġmod ify
des cription
Ġdis ag
ct ic
ĠS C
Ġthe orem
Ġgr ab
Ġthem e
Ġcl othes
200 2
Ġrepl ied
Ġobser ve
ig inal
Ġsem i
Ġad verse
ĠAccording ly
Ġposs ession
anc he
rupt cy
n ership
Ġdec ay
Ġal ert
urn s
ĠK ey
ĠMod el
Ġent r
ĠĠĠĠĠĠĠĠĠĠĠĠĠĠĠĠĠĠĠĠĠĠĠĠ ĠĠĠĠĠĠĠ
h us
ĠM ike
ĠAg ain
all s
Ġe c
ĠSp ring
Ġit er
å Ľ
Ġ- \
ĠR oyal
ĠÃ ®
id ad
Ġstrong er
is ons
Ġsatisf ied
ĠV an
ch ain
ĠAd minist
iction ary
ĠD onald
Ġpay ing
iscuss ion
Ġpass age
Ġvol unte
Ġt iny
ann y
Ä Ļ
Ġproceed ings
Ġtalk ed
ĠBl ue
aus s
Ġp el
Ġopp osed
Ġprov isions
ar ation
Form at
Ġvul ner
Ġexper ts
ĊĊ ĠĠĠĠ
Ġass ist
ĠC OU
pro t
Ġscen ario
ÐµÐ ¼
Ġparticip ate
ĠT own
Ñ ĸ
end o
m ut
du ction
Ġsurpr ising
Ġaccom mod
Ġt all
Ġfrag ment
reg ulated
Ġco al
Ġla id
Û Į
ĠJose ph
Ã «
ag raph
Ġshould n
Ġdepend ence
Ġdocument ation
Ġlaun ched
P age
Ã µ
Ġh orm
Ġ rom
Ġdim ensions
Ġprof iles
Ġcry pt
Ġur ban
( _
il ation
ĠC ivil
Ġb omb
Ġst ores
Ġwel come
ĠTH IS
H A
Ġgr an
ĠH D
oun der
ĠL ab
Ġlo an
y d
opt ions
Ġ> =
Ġreview s
end ar
Ġcop ies
Ġstatist ically
c aps
ĠOh io
Ġmat ches
Ġsche dule
Ġuint ptr
Ġreg ulations
Ã¨ re
t xt
Ġk iss
t x
ĠM s
Ġcon form
Î ®
Ġcorrespond s
Ġcheck ed
Ġinfl ammatory
Ġdis charge
rop y
Ġacc used
head er
UL T
"} ](
Ġke ys
Ġemb ry
Ġnear by
ic ul
ir ation
ĠR ight
Ġbre aking
Ġs elling
it an
ĠAtt orney
Ġregard less
Ġo ste
Ð¾ ÑĢ
Ġmit ochond
Ġb on
ĠOr gan
Ġcho ices
Ġtra ined
sp ring
ĠW omen
Ġmark ets
Ġvict ory
Ġinvolve ment
B B
Ġcalcul ate
. ^[@
Ġrow s
ĠM use
Ġcardi ac
h ad
c it
Ġa ver
frast ructure
Ġcare ful
Ġdifficult y
Ġp ushed
Ġrecept ors
w orld
}} }}
ĠF ort
N R
= (
Ġpl ur
p res
ar ters
Ġste el
M any
Ġoper ate
ĠH E
Ġstre ets
Ġintrodu ction
ĠCom mon
P V
eli hood
G ener
ĠĠĠĠĠĠĠĠĠĠĠĠĠĠĠĠĠĠĠĠĠĠĠĠ ĠĠĠĠĠĠ
ĠW ater
C G
u er
Ġf ed
ĠN ext
ĠB it
min ent
Ġw aves
ĠDan iel
Ġcontr ary
ĠTr ust
Ġpre jud
os ome
Ġth ro
Ġsus cept
Ġexpl o
em ploy
ult ural
ĠPl ay
Ġfail s
o is
Ġ199 1
Î ´
st one
Ġgood s
Ġap artment
ĠY oung
Ġf ract
it ure
Ġtrans lation
Ġcoe fficient
Ġsemicon ductor
Ġrob ust
Ġb read
Ġco oper
am ples
{ -
Ġinv ent
ĠL ine
ĠSim ilarly
or se
ĠB ern
pos itive
Ġspec im
O K
Ġw al
Ġemph as
R ed
ĠE gypt
Ġmoment um
ĠCol umb
Ġt aught
Ġ2 50
Ġm eth
Ġad hes
Ġgreat ly
~~ ~~
Ġpres ents
Ġdraw ing
Ġmanufact uring
Ġsust ain
Ġopp osition
M em
Ġfac ing
Ġb in
ol y
Ä «
Ġcalcul ation
and e
ink ing
Ġing red
Ġcompl iance
Ġstim ulation
Ã Ł
Ġm ad
Ġrepe at
Ġconstitution al
W ork
ĠS i
ut en
yn the
ĠEduc ation
St r
ari able
Ġcar rier
Ġmod erate
Ġconne ctions
M in
is ition
k m
Ġk ernel
Ġtechn ologies
T ab
Î± Î¹
Ġfl ash
ĠG iven
Ġrestaur ant
Ġcomput ed
Ġcoe fficients
Ġpro be
Ġlos ing
s ized
Ġeffic acy
Ġst abil
Ġhard ware
ĠN Y
N OT
Ġgu id
Ġreve al
P i
ĠL ight
Ġbr ings
or ial
ĠT ext
Ġev il
w an
angu ages
m olecules
Ġbas ically
Ð°Ð ²
Ġun iverse
# :
O F
s uch
Ġg arden
ĠAn alysis
Ġte a
Ġin fections
Ġ19 70
Ġt ab
Ġst er
Ġarchitect ure
ĠEx per
ĠM ake
G S
put ation
Ġarbitr ary
M ost
Ġdecl ine
pr ise
Ġwe ren
Ġmig ration
Ġprep are
ĠD id
Ġvictim s
ĠCon stitution
ĠF ar
b as
Ġaccom pan
ĠJ on
lik ely
ian o
Ġun w
Ġpl ug
Ġsub stance
ĠAut hor
ì Ŀ
Ġrul ing
ĠP s
olog ist
Ġemb od
Ġx ml
m al
por ary
Ġserious ly
Ġb il
Ch ild
ĠCh apter
aterial s
ĠL ar
Ġextract ed
Ġpursu ant
Ġsymm etry
ol ly
Ġbut ter
Ġsome how
ĠK n
Ġser ial
ab out
Ġappl ies
Ġpriv ile
Ġth y
in cluding
ĠS a
r ig
Ġhon or
el d
) }$
Ġus age
s ystem
V is
ĠSpec ial
Ġan xiety
che m
ĠM D
ĠP ers
Ġdiagn ostic
Ġcre w
V AL
s ys
Ġsum mar
ĠO lymp
ail able
pro ject
Ġrem em
Ġch lor
Ð ¹
Ġcra zy
ep ing
Ġre ferences
avel ength
Ġh ung
ĠRe al
Ġaff irm
Ġpropos al
min us
ĠD ate
au x
lim its
ol i
ro sc
Ġcalcul ations
ĠB ow
------------ -
Ġles ions
Ġs ending
H C
Ġex cluded
ad ata
Ġass ets
Ġcontr ad
re ens
Ġant icip
Ġpregn ancy
Ġw estern
Ġphot ograph
u j
ab a
re land
Ġinter mediate
Ġthere of
ãģ ĵ
Ġ6 9
p ie
AR D
Ġfeel ings
ĠH arr
S ET
Ñģ Ðº
Ġcomplex ity
un ning
Ġst aining
D uring
Ġt ough
Ġcorpor ate
æ Ĺ
up id
es ome
Ġex it
Ġb at
Ġac et
Ġimpl ied
ĠL uc
o pp
ĠAnd roid
Ġsm oking
Ġpart ners
osp it
Ġenforce ment
Ġtax es
u ct
Ġsupp ress
: (
Ġhead er
he mat
Ġtr ick
Ġsufficient ly
riv ial
cl ose
Ġ7 7
Ġweap on
Ġsimult aneously
6 00
Ġth irty
th rough
Ġlik ed
Ġsam pling
b ottom
Ġ$ |
& &
for ward
01 5
ĠAs ia
ĠC ase
Ġmeas uring
Ġmut ant
Ġaut hentic
Ġris ks
ĠCath olic
Ph one
ot ox
. $
Ġh ide
Ġ9 8
Ġclass ified
ar on
ath an
ĠJ r
Ġcreat es
ÐµÐ ´
ĠM iddle
L ink
Ġsatisf y
ĠB usiness
ĠY ear
ĠWil son
------------ --
Ġtarget ed
Ġ7 8
Ġtr ou
am ond
year s
Ġtheoret ical
z ero
in als
Ġ Ñĩ
e lement
Ġrev olution
u ity
Ġprec isely
ĠH and
H D
i ology
Ġpos it
st ep
ĠL ove
Ġt one
Ġany more
% ;
Ġelect ed
Ġregul atory
Ġh am
ĠC ross
In st
Ġh ier
ĠAma zon
Ġmist ake
Ġcomplic ations
ogene ous
Ġpred iction
og rap
Ġvide os
Ġdiscl osed
i est
ĠO x
T YPE
Ã ½
Ġbe er
as ive
Ġactiv ated
ax is
ĠN A
Ġret ail
Ġrequ iring
I X
ĠE th
Ġpart ially
Ab out
ak a
form ed
Ġvari ations
Ġst ir
Ġmut ation
Ġannoun ce
U C
g raph
Ġre ar
g le
Ġgr ass
Ġh ook
Ġp seud
ĠS outhern
x c
Cont rol
ĠTe am
Ġa er
Ġre fe
I LL
un ct
Ġse ar
ĠCol l
Ġapopt osis
as ant
onym ous
Ġadequ ate
ob s
ĠF A
n m
Ġm apping
Ġb ands
C urrent
', '
Ġload ed
Ġ ë
math scr
Ġclass ic
ĠU RL
S l
serv ice
enn y
ĠL ie
ĠM E
Ġle af
Ġcorre ction
msg id
Ġdeal ing
Ġs oci
ĠP T
á ½
r ams
Ġdom ains
× ķ
ĠFor ce
um ps
s ch
Ġconsum er
f ol
\ "
n ie
M ENT
ĠB ased
Ġexec ution
25 5
// /
W rite
aren ess
w r
ans as
ĠE p
B uffer
yl van
Ġwhere in
Ġf Ã¶r
ĠS her
Ġt ract
IM E
Ġ icon
Ġag ed
msg str
Ġlight s
10 5
Ġadministr ative
ĠP ak
Ġn arr
Ġdiag ram
Ġre new
Ġpol ynom
g age
W E
ĠH a
Ġconsider able
et he
Ġ\ -
Ġread ers
Ġto ken
Ġdist ributions
Ġquant ity
ĠG ra
å °
å Ń
Ġbroad cast
oc ard
Ġ7 4
Ġdrink ing
Ġmach ines
Ġinhib itor
à °
itro gen
12 3
ĠSh ow
T ex
Ġcon ce
Ġwith draw
Ġcol our
)) )
W R
Ġm ater
Ġl ady
Ġhard ly
Ġ9 7
8 00
Ġinfl ammation
C ar
Ġuns igned
Ġro of
t own
ĠNet work
Ġelev ated
ĠP age
Ġnumer ical
Ġmark er
typ es
Ġdo ct
p ackage
Ġt ur
ĠD R
Ġtr ace
Ġ ..
Ġbul k
Ø§ Ø
M ode
è ¡
Ġprogram ming
ĠM aster
act s
Ġfif th
Ġmag ic
me an
a ire
Ġpul se
Ġre ly
Ġent ity
ĠFR OM
ĠH R
Ġincub ated
p ool
ol ars
Ġnot ion
ĠN ov
ĠR ay
ific ate
Ġz u
ĠAm endment
Ġexhib it
Ġsh it
× Ļ
Ġbacter ial
re ement
Ð¸ Ñı
ĠI M
ear ing
Ġdire ctions
let on
Ġnat urally
n ament
port ed
Ġt il
re ason
Ġfem ales
V er
Ġinter ior
Ġd ialog
ac ity
On ce
H er
op rote
Ġmetab olic
Ġpay ments
Ġbeaut y
Ġsh ares
ĠFrancis co
ĠK im
ir atory
11 1
ass oci
Ġref ers
Ġk m
C ell
ac cess
Ġre com
Ġnam ely
Ġl ying
Ġcre am
Â ĥ
an im
} -\
Ġhyper t
Ġbirth s
Ġc yl
ĠTechn ology
Ġw ound
ãĤ Ĥ
l ers
ar se
us al
uns igned
}( {\
Ġm arg
Ġwhe never
Ġinv al
Do es
Ġmult ip
ĠEng ine
Ġm ales
Ġprec ise
Ġon going
point s
Ġfl ood
mon ary
Ġcon sec
Ġfall ing
Ġconstraint s
ĠB OOST
Ġindu ce
Ġ$\ {
P ER
clud es
d est
ĠIn it
Ġe en
Ġcyt ok
p erson
=" #
M ed
| ^
Ġint ake
Ġg ang
Ġgen u
ĠDemocr ats
Ġtro ops
Ġatmosp here
ĠO K
Ġres erved
In it
Ġsub stit
L ength
Ġsw im
Ġunder t
ocy te
ĠW ay
all oc
ps on
Ġsil ence
Ġen erg
Ġt un
ĠRep ort
ple t
t ml
Ġlegis lation
Ġperipher al
P AR
Ġart ists
ch arg
Ġcapt ured
unt ime
ĠG ame
D ep
ĠF red
), \
D own
Ġpl ates
Ġc able
Ġphosph ory
Ġsett lement
S ch
U RE
Ġsk ill
p ression
Ġis t
Ġg iant
Ġdri vers
Ġwh is
ĠG ar
ino is
ĠB razil
Ġcompar able
ĠEn ter
Ġinst ances
Ġtom orrow
Ġ riv
Ġl iber
ĠO l
Ġmount ed
} .$$
Ġfrequ ent
Ġmar ks
ab eth
ĠIm age
Ġpart ition
Ġreturn ing
Ġhand ling
Ġd ict
Ġv eter
ochem ical
elle e
ĠP S
Ġco inc
ack ing
Ġintel lect
Ġl ists
Ġdatas et
Ġampl itude
â ĸ
Ġunivers al
am ination
Ġocc as
Ġel ig
Ġy eah
Ġstru ck
Ġadjust ed
ont o
ÂłÂłÂłÂł ÂłÂłÂłÂł
Ġb anks
ĠSt an
Ġ7 6
b ell
Ġk om
Ġarr anged
Ġh ang
F D
Ġun con
ĠH on
Ġat oms
Ġdisc ipl
Ġre nal
Ġflu ct
Ġre ward
Ġreach ing
ilib rium
Ġcommunic ations
........ ........
Ġrel i
resp onse
Ġob j
ĠM ic
W S
ylvan ia
Ġorgan ized
dev ice
Ġrout ine
Ġload ing
v s
Col lect
Ġcontroll ing
Ġindepend ently
h av
Ġcomp aring
Ġf asc
. ]
i ations
Ġre jected
off set
ĠVal ley
AT H
Ġco vers
Ġscient ists
Se cond
\ }$
Ġcomp rom
Ġteac hers
Ġben ch
ĠF ather
Ġdiv ide
Ġin her
Ġo u
Ġst uck
Ð¸ Ð½
æ ķ
Ġcompens ation
Ġexc it
ust ration
i ol
Ġ ÂłÂł
ĠS ov
Ġab normal
% ).
F inally
Ġleg it
Ġmagn et
Ġrespond ed
b ool
O ptions
Î ¸
fil ter
Ġl attice
ĠF und
st ra
ual ity
ĠâĢ ¢
h ard
Ġcover ing
o i
B uild
Ġst ations
T D
R ow
in ition
Ġa ux
G O
met ric
Ġcreat ive
O per
Ġs ulf
ion ed
qu es
ve ctor
M ult
Ġr ising
Ġ8 8
empt y
w art
in fl
ĠCh ris
Ġdo ors
Ġag encies
Ġj oy
ĠI reland
Ġd ance
Ġ== =
ic ht
d ays
é Ģ
Ġsc an
con duct
Ġme re
gress ive
Out put
p ad
b uffer
ĠF ox
conne ct
Ġyield s
01 7
ir y
Ġserv es
Par am
ĠP E
ĠMuse um
ov ascular
Ġdis appoint
Ġo mitted
op ath
Ġl ob
Ġmatch ing
ãĤ ī
H L
Ġvari ance
ĠSw ed
å Ĭ
Ġst om
Ġ\ |
b led
c ule
Ġcult ures
Ġ< =
)* (-
ĠE lect
Ġdecre asing
Ġs outhern
}\ \
ĠCon ne
ĠT oday
ĠN umber
Ġabsor ption
Ġval ve
em ic
Ġby tes
Ġinj ured
M ark
ĠR od
{ (
Ġyes terday
ĠS ix
Ġpriv acy
Ġdestroy ed
P G
el ve
Ġc raft
Ġacadem ic
Ġtra v
ĠSt art
Ġmat hemat
Ġcoh ort
r in
Ġanal yt
Ġthor ough
Ġdiscrim ination
Ġmetabol ism
Ġn erve
Ġ1 30
ĠD M
ĠB a
Ġ7 3
Ġcomprehens ive
Ġsu ffer
ĠI l
Ġpros pect
ors es
Ġpr on
h ire
pl us
Ġrestrict ed
f ix
Ġsing ular
ĠV ersion
Ġt ank
Ġde com
Ġ7 1
ĠB uild
Ġatt ribute
az z
Ġc ited
Ġ9 4
os ity
conom ic
}_ \
Ġsh r
ĠÎ ´
p u
iz z
Ġlaw yer
ĠAnd rew
Ġdi verse
Ġsign ature
List ener
Ġexplicit ly
Ġth inks
ĠSp ace
Ġgalax ies
1 12
f i
Ġ( âĢľ
). $$
ĠD ar
Ġmount ain
Ġ8 4
ir k
Ġchalleng ing
Res ource
Ġm ild
is p
Ġbeh alf
ĠSc ot
Ġimpro ving
pl an
Ġ1 25
Ar g
Ġche ap
Ġexpl os
B lock
m ake
ĠL ew
ON E
D ev
ĠP oint
Ġpro gn
we ek
Ġchick en
Ġ} \
ct x
em an
OR E
Ġl unch
i ar
m ay
Ġins u
Ġ19 89
Ġappoint ed
Ġvot ers
AR Y
Ġdecl are
Ġed ition
& #
on om
Ġemploy er
v y
h ol
Ġv ascular
Ġt ape
d ig
May be
he tic
e le
ir ms
Ġvess el
ur d
medi ated
Ġstrugg le
up date
Ġfew er
Des cription
Ġn orthern
ns ylvania
ĠP L
)$ $
Â ¥
ĠS at
op es
Ġapproxim ation
ro se
Ġse vent
Ġclos ing
ĠCar l
ĠE nt
Â ¼
T oken
oles ter
`` `
at re
ĠCon f
Ġaim ed
Ġg auge
ang ers
ord an
b its
Ġhas n
ene ath
S ign
Ġf ool
Ġpharm ac
a ver
Ġl oud
Ġincorpor ated
ĠCh ampionship
Ġnerv ous
olog ically
Ġc ust
Ġapp s
E m
st ic
Ġw avelength
Ġf ired
, $$
ĠB on
ubl ished
ist ical
Ad dition
ific ial
Ġl ips
Ġplur ality
re le
N P
Ġmod ification
10 4
ĠTh ank
ĠA ward
Up date
f iles
ĠPer haps
U se
Ġdiagn osed
13 0
C ase
ĠN C
Ġhere in
Ġin clusion
Ġintr ac
AP I
Ġconsist ing
Ġdev iation
ĠW alk
Ð¾ Ð½
In stance
k ind
Ġorient ation
Ġbir ds
Ċ ĠĠĠĠĠĠĠĠĠĠĠĠĠĠĠĠĠĠĠĠĠĠĠĠĠĠĠĠĠĠĠĠĠĠĠĠĠĠĠĠĠĠĠĠĠĠĠĠĠĠĠĠĠĠĠĠĠĠĠĠĠĠĠĠ
ĠB u
ĠMed ia
s ite
Ġtele phone
Ġ9 2
Ġr um
ĠSp ain
Ġupd ates
ĠCom put
ĠP ass
it Ã©
ra ined
ĠE mp
Ġ7 9
ĠT aylor
Ġc um
est inal
ĠRes ults
Ġbu ying
Ġbas ket
ad i
Ġsm oke
Ġple asure
h s
Ġtrans plant
Ġtempor ary
Ġp itch
Ġ8 9
ĠK en
Ġch ip
et ies
ĠCom m
ĠCorpor ation
Ġimpos ed
s ql
ict ions
Ġlist ening
Ġ19 83
wh ite
ĠB ush
Ġver tex
or ous
ask a
ov ing
Ġheav ily
Ġalleg ations
ĠG reek
Ġinn oc
material s
------------ ---
ne um
ens or
ĠMich igan
Ġstat utory
c b
ur i
al and
Ġin frastructure
Ġp ocket
Ġmov ies
Ġres olve
Ġadd s
ĠB R
01 9
} [
ĠW at
ĠDav is
Ġs el
Ġprodu ces
Ġeduc ational
Ġte en
Ġalgorith ms
Ġ1 11
10 2
N one
Ġ ],
Ġmag azine
Ġst upid
p ush
Ġad mission
f ire
Ġ1 15
tt p
aw s
Ġenjoy ed
ist ence
Ġfluores cence
Ġconsum ers
Ġag ric
st able
Ġde lete
ne cess
ĠMan agement
Ġredu ces
ĠN J
Ġ** (
Ġelse where
Ġkeep s
Ġdomin ant
Ġadvant ages
ĠA ge
Ġbr anc
D I
Ġgener ating
ĠH ard
ĠÂ ¶
j pg
Ġengine ering
Ġinequ ality
Ġsett led
Ġfac ed
Ġsm iled
ĠDet ermine
h older
ĠAb out
Ġeng age
Ð» Ð¸
. /
< \
u its
ĠC hem
Ġfrequ encies
ij er
Ġh oles
Ġde but
T op
! '
F urther
Ġve ctors
ad el
Ġref lected
Ġr ural
Ġbar rier
18 0
Ġ> >
ĠL ibrary
RNA s
Ġover come
, {\
ĠIn vest
ad vant
Ġse es
pro v
ĠDes ign
on ed
Ġexec uted
Ġdes irable
Ð°Ð ¼
Ġen abled
Ġtrack s
ĠMus ic
ow a
ĠG all
aw a
ile y
ĠAcadem y
ĠM iller
Ġmet a
Ġfound ed
id al
Ġ8 7
ann ot
Ġexpl ains
sh ould
ogen ous
s v
Ġsp okes
et ch
e h
ĠF ood
ĠM ajor
Ġy ards
itud es
Ġapprec iate
re ll
Ġ Ä
Ġmove ments
Ġ8 3
Ġcontin uing
am ps
ĠN orthern
Ġ( $\
}^{ -
ĠR og
S tyle
ĠU ser
w orth
Ġcon front
Ġch a
ĠDes cription
Ġrece iver
Ġfriend ly
Ġne ural
u id
Ġ9 3
ib ration
âĶ Ģ
č Ċĉĉ
Ġper mitted
Ġarrang ement
Ġprint ed
Ġt ack
Ġprov en
Ġro ots
Â ¸
Ġrough ly
= -
Ġh ospit
' ),
iment al
Ġmir ror
ãĤ Ĭ
ĠTh ough
ĊĊ ĠĠĠĠĠĠĠĠĠĠĠĠĠĠĠ
Ġad mit
IV E
B o
Ġg ut
Ġn ose
ĠPal est
Ġdec or
iss ions
Ġme al
Ġconstant ly
ARR ANT
Ġ8 2
ĠG O
s n
Ġimp air
ĠKing dom
Ġinv asion
oun ced
01 4
L abel
199 8
Ġparticip ation
Ġsc ales
p ref
g el
A ccess
N ET
ros is
Ġel der
ĠM ain
ĠPro position
. ),
Ġinter vals
Pro v
pro d
Ġdismiss ed
Ġres olved
Ġ19 88
Ñ ī
Ġl anguages
Ġconvert ed
ij n
Ġconserv ative
end ix
iz abeth
Ġfall s
Ġnod ded
se x
Ã© t
Ġhop ing
Ġsched uled
Ġter rible
Ġprof it
vious ly
St ud
Ġinhib itors
Ġbelie ves
U ST
Ġf older
EN SE
cl ip
ĠR h
A p
ri ents
Id ent
Ġpept ide
Ġbound ed
Ġun likely
Ġdeterm in
ĠIll inois
f ull
Ġnewsp aper
im p
Ġ\ ;
y g
sh ift
Ġt unn
ĠPac ific
k it
Ġunus ual
Ġc ache
Ġsh out
Ġden omin
Ġstr ings
d agger
Ġsil ent
Ġphenomen on
ĠJew s
On ly
Ġm ais
Ġbut t
ĠW ARRANT
ĠD ig
ibr aries
Ġperson nel
Ġv oc
Ġpil ot
ĠL ittle
em ed
Ġview ed
Ġdo ctors
in ternal
ĠL ow
ĠC ur
Ġvis ited
Ġdu plic
Ġapp ell
Ġ9 1
B T
Ġret ire
Un ited
es ides
b ial
Th read
ĠB ell
Ġ ell
N on
Ġhoriz ontal
F unction
Ġman ual
ĠIr ish
Ġwrit ers
Ġsc rew
app y
Ġbe ach
Ġ1 14
! âĢĿ
Ġconf lic
ĠC urrent
ĠR a
Ġinter rupt
Ġpres erv
Ġton ight
Ġdis h
ari ate
Ġant igen
Ġatt ended
opl us
Ġ8 6
ĠSc ient
Ġcompr ising
Ġdeep ly
v m
Ġpar as
Ġ+ /-
Ġt ren
w hel
Ġres ist
Ġegg s
ov es
Ġopin ions
Ġcoord inates
ĠQue en
ĠL ocal
Ï į
col umn
Ġfun c
Ġ1 12
u ated
end a
Ġbow l
ĠPen nsylvania
Ġconven ient
Ġdist urb
Ġvari ants
ĠC ell
ĠE L
ĠHar ry
olog ists
A CT
Ġc odes
Ð½ Ñĭ
Ġevery body
Ġuncertain ty
ĠAs ian
Ġcolle agues
Ġprofess or
Ġon set
Ġfore ver
Ġloss es
et r
AT ED
Ġoper ated
Ġavail ability
ac on
* ]{},
Ġmanufacture r
Ġrec ru
Ġf el
et ics
under line
ex ample
ĠT ake
ĠE nergy
an z
' \
Ġcalc ium
Ġt err
Ġprior ity
c us
ish op
ĠIn te
Ġevery where
Â ´
ĠCons ider
Ġ8 1
const ruction
ĠApp lication
Ġdem ands
ĠHT ML
Ġind irect
Ġpow der
P ort
Ġinter ference
opl asm
Ġsc ored
Ġhouse hold
Ġtra il
Ġc ock
Pro ject
Ġpart nership
Ġperson ally
ace ut
ul ator
ĠS QL
Ġimprove ments
Ġsp ons
Â º
Ġaccompan ied
Ġstri p
ĠSt ill
g reen
ST AT
ĠStud ies
ER V
Ġdi ver
pe red
com mun
p ot
Ġsc attering
Ġprov ider
m aster
01 6
Ġregular ly
Ġj et
Ġc ig
ur able
Ġhealth care
he rence
Ġkin ase
ĠR est
Ġphilos ophy
A cc
ry ing
Ġg ay
ĠCE O
Po inter
ic ing
Ġent ering
D eb
Ġbl ess
Ġt u
Ä Ľ
ĠY eah
ĠVal ue
Ġfail ing
Ġprocess ed
Ġcapt ion
Ġwire less
Ġquant itative
men u
d am
ĠT urn
F actory
Ġb att
os omes
Un der
l ot
ĠPat ent
Ġfun ny
Att ribute
Ġcomb at
ĠÂ °
ĠErr or
ĠB ase
Ġde ar
Ġworld wide
ijer ph
Ġlip id
text bf
Ġra rely
Ġ( %)
^ ,
st o
Ġ Ñĥ
Ġcompet ing
Ġw ake
M c
h m
Ġa z
Ġu pt
ĠM ir
H ave
MA X
ant o
Ġf usion
ĠAr ray
Ġm amm
Ġre venue
Ġcon ve
Ġgrad ient
= {
ult y
Ġr ice
Ġang ry
Ġstay ed
Ġstead y
ĠTr ue
Ġsepar ately
Ġtim ing
A rt
Ġinsp ired
ire ction
ev in
è ¦
e ff
op ed
Ġstud io
V M
Ġ1 13
d oor
f amily
S um
Ġdesign s
Ġpetition er
Ġsh ips
Ġdiv isor
Ġthe ories
back ground
Ġcon clusions
og l
je ctions
c ies
ĠSte ve
Ġt rem
Ġport ions
all ing
Ġign ore
) _
ik a
ĠH o
æ ī
v ance
Ġf ur
d l
Th ree
ĠS on
Ġdi pl
Ġb eneath
ĠT ri
Ġhe pat
E ach
14 5
Ġut ility
O G
ĠGl obal
Ġsyn chron
Ġmass es
Ġver dict
ill ance
ĠE vent
Ġcommit ment
Ġexpand ed
m aking
Ġmaint aining
w ent
Ġaffect s
Ġsome body
ĠA F
Ġex clusive
Ġum a
Ġsw it
Ġ1 40
Ġcon crete
sh ot
subset eq
OU R
bl ue
ĠM id
Ġpath s
ĊĊ ĉĉ
ĠE astern
Ġt urb
st ore
Ġt ired
ä ¹
ou ter
Ġle ct
Ġcal m
Le ft
Ġs ys
ĠS aint
Ġrat ios
ĠR ub
Ġag es
*~ *
Ġcons pir
Ġsurv ive
Ġlater al
ĠRepublic ans
Ġan ch
br al
U sing
is en
######## ########
Ġaw areness
e re
Ġox ide
è ¯
Ġk il
Ġrec ur
Ġcomp ute
Ġsh ook
\ >
Ġresp iratory
Ġd ial
in th
Ġmax im
y o
ĠH ig
Ġpro minent
Ġencour age
ãĤ ¹
Config uration
Îµ Î¹
Ġmod ules
Ù ģ
IL ITY
Ġsod ium
ĠU k
Ġath let
h u
ĠCapt ain
us r
text rm
Ġabund ance
Ġremov ing
omorph ism
ant i
ry st
Ġwor ried
D D
ĠM R
Ġsub mit
L ocation
Ġacqu isition
ol ving
pt on
Ġmal ign
Ġtempor al
ĠSe a
Ġmet all
ak i
b ow
ĠA C
Ġaward ed
Ġg uns
n an
Ġpre lim
Ġcy cles
12 7
Ġtrad ing
Ġchild hood
Ġem br
ch anged
Ġpar ad
be ing
ĠF L
Ð ¶
om eter
qu ot
ĠR os
bl ack
Ġco at
ĠB al
Ġdegrad ation
Ġvary ing
ĠG NU
h our
IN S
Ġadminist ered
Ġprov iders
Ġinf inite
equ al
ĠTh rough
}} $.
th read
reg ulation
Ġwas hed
ol ine
` ,
ĠF ollowing
Ġgr ay
Ġimmun ity
ĠC ook
ĠPol icy
ĠS n
az a
comple te
Ġdiscuss ions
viron ments
er as
ĠCam bridge
ĠBro ok
Ġe ase
RE G
Ġm unicip
Ġprint ing
Ġ19 60
Ð°Ð ·
Ġbott le
ĠT our
Ġext raction
Ġpass es
ĠC as
à¤ ¾
Ġab stract
ins ic
]{ .
å ¾
Ġd ens
Ð¾Ð ¹
Ġv ice
Ġre ject
ĠPh ot
}} }$
âĢĶ "
Ġwrit es
Ġsim ilarly
Ġcl im
Ġde leg
ĠS us
E v
ĠRes p
ĠW T
Ġsubject ed
h ot
Ser ver
ĠG i
add ress
l ayer
Ġdisput e
Ġent ries
ĠL es
P tr
Ġs li
ĠE ffect
Ġ{ {
Ġ19 87
Ġ1 19
Ġ1 60
Ġaccum ulation
Bu ilder
ph y
Å Ľ
ĠS A
b ot
ag an
ad ium
Ġc ord
Ġatt itude
ĠC ustom
ĠH un
ocol ate
olester ol
ĠW is
Ġha z
ĠC ru
Ġreason ably
âĢĵ âĢĵ
ĠA B
Ġphys ics
01 8
Ġal tered
Ġf lying
Ġsur ge
Ġ ),
, $
auss ian
Ġn Ã£o
ĠV iet
Ġad en
ag ram
Ġmed i
S QL
f ive
er ated
ĠD a
Ġh orses
Ġdecre ases
on ical
Ġautom atic
Ġinval id
ĠF amily
p ay
w all
Ġsystem atic
par se
} ]
Ġcompet itive
and ed
Ġge ometry
Ġtal ks
Ġadvert ising
ĠS everal
Ġexpress ions
H ello
Ġcompr ises
Com mand
Ġdest ination
ĠGeorg ia
Ġpat ch
ĠL td
in ch
Ġref uge
T V
Ġpark ing
Ġg ained
}} )
æĺ ¯
Ġanaly ze
Ġprotect ive
Ġfil ing
h ang
f oo
d ra
Ġflex ible
word s
Ġ\ "
1 19
Ï Ĩ
T yp
Comp onent
Ġu pload
Ġc ow
ĠA ction
Ġ" $
ĠZe aland
Ġvac uum
Ġabs ent
ĠS anta
Ġcent ers
ĠPr ime
Ġdistingu ish
Ġ ul
Ġ10 4
d p
b es
Ġfood s
act ivity
Â ¾
Ġcr imes
ĠEx ec
Ġasym pt
Ġ19 86
Ġgu est
Ġwed ding
ĠB oy
ĠStand ard
Ġb oss
ĠG a
Ġsever ity
Ġcont ends
Ġpack ages
Ġhard er
ĠL ead
ĠP ot
Ġfound ation
Ġs essions
h h
Ġb ull
b ecause
g rav
]{ }\
ĠU V
P ass
Ġproceed ing
rem ove
Ġsuppl ied
Ġqual ified
Ġ{ }
ĠSte phen
T arget
ĠCent re
Ġwitness es
Ġloc ally
10 3
Ġche ese
ĠGu ard
W idth
Ġcut s
Ġlik elihood
or able
X iv
zon a
HE CK
Ġan not
The ta
Ġsequ encing
su per
Ġin cl
ĠÃ ¨
b ing
rop ic
Ġb unch
}} }\
Ġt ips
)) /(
ĠSov iet
Ġsh adow
Ġ( '
Ġ10 2
s it
Ġsc hem
Ġbes ide
Ġfl ags
uck y
Ġsearch ing
ac et
W indow
Ġbe aring
Ġaccept able
Ġinflu enced
Ġfor um
Ġ19 85
ii i
Ġprev ention
f usion
Ġinter ventions
Ġguarant ee
ut ter
Ġsh orter
â Ļª
Ġpo inter
Ġhe ating
ĠD un
Ġexp enses
ut y
10 7
Ġmeet ings
ĠL A
=" ../../
Ġvol unt
ĠST AT
Ġpert urb
11 7
Ġv ital
d rop
ĠSer ies
Ġarter y
Add ress
d ouble
ĠH ave
o vers
Ġcomplet ion
RE E
h op
Ġby te
ĠCommun ity
ĠTh ird
Ġb id
Ġd ad
ĠT E
ĠK enn
re q
Ġ"" "
Ġrep ly
Ġquestion na
ĠDef endants
Ġche cks
Ġmus ical
ĠNever theless
Ġregard ed
Ġdevelop ers
a ired
T P
Ġtarget ing
ament o
Ġpsych ological
Ġcoun cil
ĠT otal
Ġkne e
à ª
ĠS ource
back s
Ã¤ t
á ¼
ĠM other
Ġfl our
Ġpix el
ĠInt roduction
Ġass ays
ĠP op
Ġsat ell
ĠC M
ot ide
Ġd ates
he ast
ĠE ric
ĠL im
ĠP ay
are r
Ġins ight
red it
as er
Ġlimit ation
t im
Ġste pped
ĠH or
G P
Ġin k
F E
Ġdes per
v ard
ĠR ome
form ance
Ġexc iting
b p
ĠD am
ke ys
f ish
Ġdis advant
Ġhar vest
P an
Ġsatisf ies
g ood
g ov
b untu
Ġgener ic
Ġm ood
Ġprom ised
Ġg ear
ĠHe ad
Ġr anging
Ġprec ision
Ġsust ained
Ġexhib ited
B ook
ĠT er
Ġas ks
Ġthrow s
rit er
ynam ic
ĠCont in
Ġt ears
Ġt ied
App lication
Ġkid ney
Ġm oon
çĶ ¨
Ġang ular
Ġele ctions
Ġviol ent
Ġpen alty
Ġoccur rence
rop ri
Ġconcept s
es ity
Ġcar b
Ġbare ly
Ù ĥ
10 8
TT P
ĠW as
Ġaff ili
Ġper ceived
d c
Ġact or
o a
on i
Ġcool ing
Ġover whel
Ġmedic ation
Ġresid ues
Ġar med
names pace
ĠT enn
å į
Ġsa uce
Ġend ing
Ġm uc
Ġs lic
Ġest e
ĠW hether
IC ENSE
Ġwonder ing
Ġrec overed
neg ative
Ġ( (-
ĠĠĠĠĠĠĠĠĠĠĠĠĠĠĠĠĠĠĠĠĠĠĠĠĠĠĠĠĠĠĠĠ ĠĠĠ
at tered
Ġ }}
Ġpro jection
Ġjud icial
cond ition
i otic
Ġcarcin oma
Ġ ----------------------------------------------------------------
ro oms
Â ¤
Ġt ong
Ġ1 17
Î¹ Îº
Ġn it
Ġn ations
Â «
Ġstudy ing
Ġdiff usion
Ġcl imb
er ies
Ġse asons
ra it
Ġcook ing
> &
Ġrestrict ion
Ġun like
Â ¿
D av
ble m
Ġflow ers
ang ular
Ġpers u
h l
ou ston
Â ģ
Ġb ub
H igh
Ġto w
ĠWith out
Ġt ension
ari os
Ġcont est
ĠK it
Ġbo olean
Ġal ignment
Ġrandom ly
Ġfeed ing
Ġar c
ab e
Ġc oding
s ession
ick ing
l ocation
ĠM att
199 7
Ġearn ed
m ac
Ġbu ck
14 0
Ġspirit ual
ret t
AM P
Ġrec ruit
Ġun expected
Ġprofession als
ĠC at
M et
ap or
Ð¾Ð ±
Ġno body
Ġ10 5
ĠR ose
ãĥ¼ ãĥ
eng ers
Ġread ily
ay a
Ġsc ream
Ġaddress es
Ġfacilit ate
S w
U P
ast ed
Ø ©
Ġ19 84
}} $,
Ġnut rition
å ¹
est yle
ĠLet t
Ġdel iber
ge red
comm and
Ġj un
ĠA ud
Ġinv ited
Ġpan els
Ġ1 16
b ury
Ġatt ributes
Ġph ases
ĠF I
m ask
Ġclean ing
Act ivity
Ġmix ing
T otal
Ġaccess ible
à ´
ĠR ights
Ġassoci ations
L ong
199 6
Ġidentify ing
Ġthe rap
l ined
Ġd rew
irect ory
ĠPat ients
Ġpar agraph
Ġep idem
f our
Ġinsu fficient
ĠM inn
\ }
Ð¸ Ð¼
P ut
y y
Ġde position
Ġwe ird
t an
Ġo h
Î Ķ
irt ual
b old
Ġeffect iveness
Ġp ounds
t ri
et ts
Ġsy mp
Me an
Ġput s
c raft
Ġpr ay
R ange
![ ](
ĠA sh
01 2
}} (\
Ġdec ent
Ġgr ate
ĠUn fortunately
Ġappe als
g un
ĠL ind
** .
Ġv ag
Ġprom ising
Ġmac roph
associ ated
O p
Ġdest ruction
ill ary
Ġvacc ine
Ġd ip
en v
Ġresid ual
u ations
inst all
Ġtrack ing
if ting
Ġen orm
T ag
V C
Ġreson ance
y our
ĠO pt
ĠC y
Ġult imate
rep resent
Â Ĺ
Ġt ent
c opy
D i
Ð° ÑĢ
Ex ec
Ġbreak fast
Ð¾ ÑĤ
al so
Ġdis ability
ĠUn ivers
su ccess
. :
ĠG ames
set t
Ġmole cule
ĠD ue
ĠD oug
Ġtrans mitted
ren der
Ġp ill
ĠJ un
\ ,\
ĠF BI
l ate
Ġp i
ul ative
0 22
c am
al o
Ġbl ot
en z
Ñģ Ñı
t ree
Ã ¯
Ġ: :
Ġro d
Ġin cons
ĊĠ ĊĠ
a way
Ġde ck
at ile
ĠQu ant
erg ic
L ocal
Ġrel ating
ĠPlaintiff s
ĠStud y
000 2
ĠK ar
ĠO p
Ġa uf
Ġstom ach
g han
Ġgu itar
zz le
Ġprelim inary
S ection
å º
am ic
f all
Ġphr ase
ĠC u
He ader
Ġdenomin ator
Ġen vironments
Ġb ird
ĠInd ust
Ġlock ed
Ġmat rices
com fort
Ġ( @
ach ine
Ġi k
ion es
Ġ< -
ge x
d ers
Ġfol ks
Ġpromot er
ari ju
ĠT al
Ġpost erior
arch y
ĠPro cess
Ġconsec utive
ERR OR
cy cl
Ġ1 18
Ġne u
Ġrecommend ations
Ġdispl ays
Ġconstit ute
A E
Ġa qu
Ġnormal ized
ĠCon ference
Ġ10 9
ariju ana
Ġver ify
ort ing
Ġexpect ations
Ġd rain
ĠD er
Ġremem bered
Ġ18 0
Ġpro pose
Ġh int
IT ED
ĠWe ek
ĠH ay
Ġar rive
Ġâī ¥
Ġdro ve
Ġcheck ing
ad en
Ġvess els
Ġcomput ing
ĠF ord
Ġpresident ial
ĠRep resent
æ Ŀ
G H
Ġple a
op her
Ġint ense
Ġre putation
Ġsho es
ĠV en
Ġf i
Ġwat ers
Ġqu ot
Ġpred omin
ĠL ady
Ġsc ar
f act
Ġembed ded
Ġinstall ation
ĠU I
ĠEl izabeth
V E
Ġingred ients
H istory
Ġpul monary
Ġconc ert
Ġan ger
Ġsho pping
Ġlif etime
ĠĠĠĠĠĠĠĠĠĠĠĠĠĠĠĠĠĠĠĠĠĠĠĠĠĠĠĠĠĠĠĠ ĠĠ
ment e
ĠAn ton
ic i
wed ge
Ġ10 6
Ġcon vey
m ade
Ġle uk
Ġcontract s
Ã¨ s
Ġass ignment
L Y
Ġcontact s
Ġt ang
Ġsole ly
ĠOx ford
Ġintellect ual
' _
d isc
; ;
Ġconsist ently
Ġdel ight
Ġrep orter
ag a
ĠSy ria
iz able
11 5
19 95
ĠM P
Ġpl asm
ĠProfess or
iv ariate
Ġmer ch
ra ine
Ġc od
Ġimplic ations
_{ -
Ġin fect
yt es
ĠOffic er
Ġun clear
et ary
ĠColumb ia
elf are
Ġdifficult ies
t bl
set minus
ĠR en
IT E
N um
Ġent hus
ç »
w ould
ĠChild ren
Ġo ught
Ġg otten
ĠL atin
ĠM icro
Ġx e
ody nam
H i
+ ^
ĠPol it
Ġtreat ing
Ġd oses
ir th
N G
SI ZE
ĠF air
Ġlib eral
Ġs que
ET H
ĠC ond
on ing
ĠR ound
sem ble
t mp
b ec
In te
Ġbox es
im m
Ġterrit ory
Ġcollect ive
p red
ag ent
ob ic
fl ags
Ġdoct rine
an alysis
ĠD at
Ġin herent
ag ic
we re
Ġswitch ing
Ġkn ife
ĠM it
Ġillustr ated
Ġor bit
Ġret riev
Ġdut ies
U til
ĠC ost
Ġlay out
Ġenzym es
ĠK ent
over ty
ĠB ru
å ¼
em ail
ple x
Ġinterpret ed
ab bit
Ġtal ent
clus ively
ĠH ug
Ġfeat ured
Ġvalid ation
Ġpregn ant
M s
Ġcomput ers
ĠEd ward
Ġtox ic
ĊĠĠĠĠĠĠĠĠĠĠĠĠĠĠĠĠ ĠĠĠĠĠ
Equ al
ĠM ah
ĠL y
Ġh its
Ġsh ield
Ġliter ally
Ġenthus i
Ġdefect s
Ġfuck ing
âĢ ħ
em pl
ĠL E
Ġcap s
ber ry
Ġign ored
Ġ12 8
ĠPr ince
ac her
Ġutil ized
reg ular
b c
Ġvar ied
ĠĠĠĠĠĠĠĠĠĠĠĠĠĠĠĠĠĠĠĠĠĠĠĠĠĠĠĠĠĠĠĠ Ġ
n orm
Ġown ership
10 9
Ġden otes
ac co
v ir
h om
S che
Ġch amp
×ķ ×
Ġhead ed
Ġde eper
oc ols
art s
T ake
Ġl y
c ases
ĠF oot
Ġf illing
Ġro y
Ġes cap
B it
Ġcomplex es
Ġconnect ing
ĠC PU
ĠR A
ie ve
Ġatt ributed
Ġphys ician
are a
ĠÐ½ Ðµ
Ġp ipe
âĢ ĭ
Ġmus e
ES M
ĠHol ly
^{ -\
h space
Ġinterview s
Ġrepeated ly
~ *
Ġ6 00
or o
Ġar ise
ig ate
ĠB C
gr oups
Exp and
des c
ĠP ath
FL AG
ol en
Ġequ ilibrium
ach us
Ġem otion
Re ference
Ġref lection
Ġj ail
al ities
Ġdys function
Ġm u
ĠBer lin
Ġbenef icial
Ġres idence
ch t
in ator
Ġw ing
ĠF unction
Ġlaug hed
Pro cess
Ġp m
Ġed it
Ġse eds
S pe
Ġneigh b
Ġguid ance
Ġgrav ity
Ġo cean
par ams
ne x
Ġdescrib ing
Ã ¬
ĠW in
ĠS av
Ġint ens
og ram
Ġalong side
is l
ĠS R
Ġch at
Ġisol ation
Ġvis its
Ġvisit ors
oun ce
S V
}$ $\
Ġinvest ors
inn ers
Ġbur st
Ġmin i
ett ings
ĠN ic
Ġoccur ring
Ġnames pace
Ġwork er
Ġvari ant
Ġadapt ed
Ġreve als
Ġgu ests
Ġmem ories
Ġregist ration
ĠB udd
ĠM as
ĠB ra
f c
R un
Ġc ub
ĠW ord
ĠM ap
Ġrul ed
Ġover ride
10 6
ĠN ight
low er
Ġintegr ity
hold ers
Ġra ising
] -
W ill
ĠF if
Ġ ub
Ġsch olars
l anguage
Ġf ert
â ī
c ache
plic ity
j ar
IS A
Ġtop ics
Ġp neum
ro gen
ĠC C
Ġconj ug
Ġattract ive
SE LECT
Ġ+ +
ow ed
Ġbranc hes
Ġce rem
ol is
Ġgovern ments
Ġexpress ing
IG N
er red
Ġspecific ity
m ethyl
Ġcorrel ations
Ġv otes
Ġfr ames
L P
; ">
ment ioned
ol o
Ġnic ht
form s
Ġland scape
f inal
b inding
Le vel
scrib e
R ad
Ġm Ã¡s
- *
Ġarriv al
ĠN az
Ã İ
Ġprefer ably
he ld
p ow
M ain
Ġm ock
Ġentr ance
ĠÃ Ĳ
199 4
Ġcr ash
ĠP rior
Ġg athered
miss ible
ĠL ear
ĠTh om
r b
Ġl ys
Ð¾ Ñģ
Ġth rown
R ES
ag g
end or
Ġinc hes
th ur
Ġfe as
ĠAnd erson
Ġlik es
Ġl um
ĠLew is
burg h
Ġmonth ly
ed ge
================ ====
Ġarg s
w atch
_{ (
Ġ10 3
ĠA z
Ġdim in
Ġn i
Ġcan n
Ġdef ines
l ab
Å £
hel p
Ġper ception
Ġdecl ined
ard ed
t otal
ĠĠĠĠĠĠĠĠĠĠĠĠĠĠĠĠĠĠĠĠĠĠĠĠĠĠĠĠĠĠĠĠ ĠĠĠĠĠĠĠĠĠ
Ĩ Ĵ
ut t
at on
Ġhop es
Ð¸ Ðµ
Ġo lig
Ġemerg ed
vert ed
Ġconv icted
Ġconstit u
Ch ange
ur ations
e cho
ĠJe an
ĠÃ® n
Ġvalid ity
ĠL I
\! \!
pr ison
ĠĠĠĠĠĠĠĠĠĠĠĠĠĠĠĠĠĠĠĠĠĠĠĠĠĠĠĠĠĠĠĠ ĠĠĠĠ
Ġet t
b us
Ġany body
Ġvari ability
Ġm old
cell s
less ly
Ġaw esome
ĠN ick
ĠBr ad
ĠReg ister
h n
print f
et erm
vers ely
im mun
Ġat om
ĠĠĠĠĠĠĠĠĠĠĠĠĠĠĠĠĠĠĠĠĠĠĠĠĠĠĠĠĠĠĠĠ ĠĠĠĠĠ
ĠR yan
ĠPak istan
effect ive
J o
con v
ĠC reate
Ġtransport ation
st op
Ġtrans actions
Ġsymm etric
ĠE urop
de bug
ĠPro duct
ä ¼
Ãµ es
ãģ ķ
Ġlabel ed
Ġinf ant
Ġimpl ant
Ġrestrict ions
ĠM ill
ĠA ccess
Ġconv in
art icles
Ġpack et
F s
ĠBe ach
N ull
necess ary
; </
01 3
ĠA G
^ )
cl er
Ġtens or
frame work
ph ia
ot helial
B V
ĠCo ast
Ġfib ers
Ġlo ose
b ur
Ġmod ul
e ed
Val id
ĠIn f
s end
ĠCon sequently
Ġimmig ration
Ġexist ed
Ġbank ruptcy
en za
am os
ĠS ometimes
ĠAri zona
ĠN AS
ĠPar liament
inn ed
ĠE le
pe ople
Ġfunction ality
Ġsp ont
Ġin ev
Ġch ains
Ġb orrow
è Ģ
Ġ\ #
p ur
and y
Ġsu icide
Ġtrans mit
Con st
ĠAd am
Ġin sect
Ġbrother s
IT ION
Ġsuppl ies
ĠÐ ³
ĠIn dex
Ġexec ute
Ġburn ing
id ine
g ame
ĠC ro
Ġspec ify
Ġgover ning
Ġdis rupt
ĠL ev
ph al
Ġb undle
Ġdesign ated
fig ure
Ġbeg un
> .
ĠB ab
11 6
ic ations
Ġsatisf action
Ġcateg or
Ġimp ression
Ġchem otherapy
Ġperson ality
lin ux
ard ing
ĠPs ych
D O
ol n
Ġth rew
Ġd in
Ġconf ident
Ġinstr uments
Ġeng agement
Ġmitochond rial
ub le
Ġp ad
Ġblock ed
Ġl umin
Ġsa ke
g ly
Ġsurve illance
Ġan terior
Ġte asp
Ġgrad ually
Ch rist
m ates
Ġhospit als
Ġgenu ine
ĠB L
h im
Ġf ibr
b ind
Ġ âĪ
ĠKore an
V ar
Ġcoord inate
Ġfact ory
Ġanc est
ure au
Ġt act
adel phia
Ġhe aling
al g
T X
æ Ģ
app lication
Ġassum ptions
ac ht
â Ħ
se ason
T ask
Ġtw elve
D IR
ric ular
ĠJ ordan
0 23
MO ESM
Ġv ig
} "
cl ock
ĠW he
Ġad oles
Ġen ables
ĠMethod s
Ġ10 8
Ġop ens
Ġret ain
ĠIslam ic
Ġsus pected
Ġhas h
Ġquad r
T ool
č ĊĠĠĠĠĠĠĠĠĠĠĠĠĠĠĠ
Ġexp on
Ġseg ments
ĠB ul
Ġh ip
Ġ ions
Ġden y
Å į
Ġp adding
ĠCons erv
Ġmy th
st ers
Ġyour s
cont ainer
Ġ ĊĠĠĠĠĠĠĠ
Ġlab els
ĠT erm
ĠW ild
os omal
Ġepis odes
ia z
n l
Ġwa ited
; &
Ġtra ject
st age
k u
Ġdefe at
ĠH istor
itud inal
B as
Col umn
Ġphys ically
Ġhol iday
Ġdiv or
Ġcos m
Ġsize of
od d
l at
M ake
Ġent re
Ġab dom
Ġp ars
Ġencoun ter
Ġde als
ĠSer ver
Ġn as
Ġcompat ible
"} ;
Ġderiv atives
Ġden ial
v ised
ĠColor ado
ord inary
u cl
Ġt ap
anc ers
ĠP rem
Ġth rom
Ġart ificial
clip se
o es
Â Į
P res
ple te
. ).
il st
Ġsure ly
roph y
Ġ$ .
y ers
Ġ" /
Ġdis crete
Ġdifferent ly
ou ds
Ġm l
h ash
W A
E val
Ġdo zen
Ġbrief ly
Ġreli ability
Ġunder went
Ġcav ity
Ġmus cles
Ġgl ob
Ġass istant
Ġmat ched
pr im
ĠN ature
ĠAf ghan
Ã ĺ
C le
Ġbelie fs
\_ [
12 6
p rom
Ġp ushing
Ġp ub
ob acter
Ġthro at
Ġbl ame
Ġvert ices
ĠIsrael i
Ġa pt
11 4
Ġdist ant
hand le
Ġsusp ension
aps ed
Ñ Ĭ
12 4
Ġcomb ine
Ġcontem porary
Ġinsert ed
is i
Ġ19 81
Ġbond s
r ass
Ġcross ed
Ġremark able
Ġsystem ic
T itle
l an
Ġelig ible
as ia
itz er
Ġoff ensive
Ġd ont
ĠC ore
ĠSc iences
Ġf Ã¼r
Ġestim ation
b at
ch a
ĠMin istry
S earch
Ġv oting
Ġphys iological
Gen eral
ĠAn th
Ġl ap
aceut ical
am er
ĠM AP
am o
D H
Ġb old
Ġscal ar
19 90
pl ates
d iff
Ġdes ert
Ġprogress ive
Ġcardi ovascular
Ġ ).
ãģ¦ ãģĦ
Pro duct
Ġdelay ed
Ġconspir acy
Ġl ands
ĠC ub
Å ¼
b oot
Ġc ot
Ġscen es
Ġsp oken
f ather
ail ing
Ġpro long
sk y
Conne ction
Ġpoint ing
p any
Ġv a
Ġweight s
achus etts
Ġover night
oc key
Ġf ought
Ġphen otype
e lect
omorph ic
Ġelim inate
ĠPl ace
Ġbreak s
der ived
t or
Ġex port
ĠĠĠĠĠĠĠĠĠĠĠĠĠĠĠĠĠĠĠĠĠĠĠĠĠĠĠĠĠĠĠĠ ĠĠĠĠĠĠĠ
Ġluck y
Ġconf used
ĠIm ages
Ġsens ors
ĠR ail
re place
12 9
Ġquant ities
äº º
im ages
å ĩ
Ġs quad
$ ]{}
ĠC reat
at iv
Ġlov ely
ĠL inux
Ġmax imal
requ ency
ole cular
Ġequ ipped
Ġpain ting
Ġplatform s
é ĩ
ĠAdminist ration
ĠC re
En c
Ġcomp lement
Ġ Ùħ
z es
Ġsynthe tic
ĠE C
ut able
el come
C ustom
o j
Ġse ats
Ġv oor
y ard
Ġshort ly
ĠC ome
dom ain
m eta
Ġcour ses
Ġ ubuntu
Ġprogram me
: =
Ċĉĉĉĉ ĉĉĉĉ
th ree
ĠF ull
âĶĢ âĶĢ
Ġreg ulated
ĠC F
ĠN othing
par ison
ĠN orm
Ġf itting
ĠTor onto
ĠB ible
id i
ĠAd v
ress ing
Ġprevent ing
as hes
iox id
ĠM om
Ġman ually
ul ent
> \
ĠPr inc
Ġobt aining
Ġfall en
Ġd op
199 3
c ourt
Ġcoll apse
p riv
Ġcomb inations
Ġtren ds
Ġcust ody
ĠA LL
Ġpolit icians
ĠP ri
Ġch olesterol
ia h
Q ue
Ġdetect or
Ġ19 82
b ian
look ing
^{ +
Ġaffect ing
pl ane
D el
Mod ule
Ġtick et
Ġdam aged
ĠW E
Ġshould ers
ĠS S
Ġbehavi ors
end ers
claim ed
ĠM arg
c hers
ĠÃ ¥
ĠĠĠĠĠĠĠĠĠĠĠĠĠĠĠĠĠĠĠĠĠĠĠĠĠĠĠĠĠĠĠĠ ĠĠĠĠĠĠĠĠ
Ġincor rect
Ġle ak
w rap
Ġt ar
RE AD
Ġviol ated
ent e
Ġhead ing
ĠK ong
id av
ĠK at
ĠH an
Ġcapt ain
Ġpeak s
Ġd ating
Ġoccup ied
Ġh ill
vere x
Ġv ibr
ĠC rim
Ġdis abled
Ġcl ause
Ġbr on
ov en
ro cy
new s
ä¸ Ń
åľ ¨
~ )
Ġrec ipe
Ġaccur ately
C a
ure r
ed e
Ch apter
G od
ĠL yn
Ġ1 35
Ø ¨
Ġexcess ive
abl ing
Ġsm ell
ĠR oss
ĠP BS
Ġgl ut
Ġe ars
ĠGr ant
Ġdisc ount
Ġstri king
m ma
Ġext ending
z one
D ER
U rl
Ġcult ured
it age
ãĤ ĵ
Ġparticip ated
D em
Ġsc aling
p read
Ġpublic ly
ph ant
on omy
Ġn os
ĠM ars
Ġgalax y
Ġpredict ions
ĠAlex ander
N I
Ġod ds
Ġfocus ing
Ġphosphory lation
TH ER
Ġtransform ed
ĠSpec ifically
enn is
Ġt we
Ġp ressed
ĠT ax
. *]{}
ĠO P
ĠK now
ĠT yp
Ġbr illi
$ ^{-
ĠNav y
j et
Ġst ellar
mer ce
Ġsp ark
Ġbound aries
ĠSc he
od ge
ĠAg ency
w alk
Ġc ul
ĠHarr is
Ġd ar
ãĤ ¤
pt ic
Ġg raft
en na
w indow
Ġselect ive
Ġwin ner
W ait
FI LE
Ġleg end
ck er
Ġmy st
D ir
ch annel
Ġbi ke
Ġren dered
Ġaim s
Ġthreat ened
ce ive
Ġestablish ment
Ġd reams
og a
ĠÂłÂł ĠÂłÂł
script ion
ucle ar
e ur
Ġsuper n
ĠÐ µ
ĠS W
Ġg ross
tr ack
l ings
Ġstrict ly
ĠMedic ine
Ġr ating
Ġm arijuana
Ġ1 32
Ġfif ty
S erv
11 11
Ġdevelop er
Ġg rain
! )
Ġd ump
Ġstret ch
Ġinv ariant
ĠT en
ĠG re
Ġpart ly
Ġs oph
Ġprocess or
Ġsc anning
a que
Ġor ange
Off set
Ġin verse
Ġg re
Ġcorpor ation
ĠS em
Ġpot ent
Ġf ate
13 5
å ¯
C ore
Ġflav or
Ġl ibraries
ãĢ Į
ick er
Ġsurround ed
Ġspecim ens
ãĢ į
S W
AV E
Ġsh aft
Ġattempt ing
Ġoptim ization
ĠV ill
app ropri
Ġlog ical
Ġtoler ance
Ġconvin ced
t oken
ç Ľ
Ġcirc ular
P ORT
Ġret ro
Ġsh ots
ĠĠ Ċ
Ġbre ach
ĠR ather
Ġweek ly
ĠD ifferent
a id
Ġconf usion
id get
col on
ph osph
Ġbel t
OV ID
Ġappro ached
Ġcomput ation
if iers
cl osed
Ġp anc
ĠP etition
Ġnucle us
M us
Ġcap abilities
Ġcamp us
Ġcommunic ate
O ST
Ø ¹
Ġr anges
Ġtra its
ĠBro ad
Ġupt ake
ĠP rom
Ġam ended
Ġcomp ression
E P
ound ing
ĠÎ Ķ
H ar
Ġat omic
Ġreflect s
oc he
ed u
ĠEn vironment
ĠÏĦ Î·
[ **
Ġdist inction
T ube
ĠPy thon
M ac
h w
Ġte ch
Ġm s
oc oc
M AP
supp ort
Ġd ent
aw are
sh aped
rit is
GF R
Ġst iff
Ġprepar ing
ĠL ink
Ġ_ ,
Ġfro zen
ab ama
Ġob esity
A v
Ġpe pper
In v
T F
h d
P os
Ġf its
Ġst ake
Ġ19 79
ens ing
Ġdeb ug
AB ILITY
Ġmind s
Ġag gressive
fl oor
Ġdist ances
ĠÎ ³
16 8
ang el
ac les
Â Ħ
ĠS af
ĠMo ore
Ġfavor able
B s
I AL
Ġp ap
h bar
Ġdark ness
child ren
Ġple ased
it us
Ġin line
Ġdis pos
Ġs aving
ĠSystem s
Ġp ace
st rap
Ġlet ting
ĠĠĠĠĠĠĠĠĠĠĠĠĠĠĠĠĠĠĠĠĠĠĠĠĠĠĠĠĠĠĠĠ ĠĠĠĠĠĠ
ĠC P
m other
Ġwon dered
ĠCan cer
Ġant agon
_ +
doc s
He ight
Ġr h
P osition
m ate
Ġch ap
pe ction
Ġcho osing
KE Y
Ġd ying
ell i
Ġrevers ed
Ġm im
Ġpros pective
Ġut ter
199 2
Ġcomm ands
inte gr
Ġt ie
s ime
Ġ1 34
infl ammatory
we alth
ang o
Ed it
Ġsp an
pp ers
ific ant
Ġh ack
Ġaff airs
Ġp ending
Ġdiscl osure
* =
Ï İ
oun ter
Ġm ile
ĠG reg
v ia
Ġ19 50
Ġequ ality
Ġaccom pany
Or der
ĠJ SON
Ġepit helial
A h
01 1
Ġheav en
ĠT itle
h ole
Ġre pos
000 5
ly n
up le
ides pread
p air
R O
ĠHol y
Ġhop ed
Ġ" #
Ġroad s
ĠTe le
)\ ,
orne ys
Ġimp ressive
ĠScot land
Ġin jected
ĠN FL
Ġdef ining
Ġenem ies
Ġoccasion ally
Ġan th
ĠRad io
Ġair port
Ġn ous
x imate
Ġtrans parent
jo in
rom agnetic
ĠEmp ire
Ġex empt
sime q
h uman
Ġb om
×Ļ ×
Ġattack ed
Ġal arm
Ġabandon ed
O pt
Ġst ained
Ġcons ensus
Ġtr im
Ġi Phone
ik es
ãģ ł
Ġem pir
Ġvis iting
Ġ! [
Ġsp ots
Ġelectric ity
ou ri
sec urity
or ient
com ment
Ġp ist
gg ed
Ġ} )
ĠD utch
)) /
Ġelder ly
Ġpropos ition
Ġe leg
Ġsuggest ions
ĠD aily
ĠM L
c ustom
' }
Ste p
Ġ ip
s un
ĠCh o
Ġadjust ment
Ġact ed
Ġcan cel
Ġpres erve
Ġup set
re ference
Ġinvestig ations
K S
Ġm ol
20 9
ãģ Ĥ
Ġindic ation
ĠAr k
anc ies
in terest
=" @
ãģ ı
S ing
Ġtong ue
cl osure
Ġcent uries
Ġemot ions
Ġ -------
Ġcompar isons
}} _{\
ĠH ong
ĠH as
ĠB or
24 0
ĠE uro
Ġ+ \
Ġcort ex
els on
anc ial
Ġ10 7
Ġd ir
Ġintrac ellular
Ġco ating
ĠG ro
F our
ĠD or
Ġm erg
Ġsol ved
Ġvulner able
Con f
Ġpro pri
tr ation
Ġauthor ized
Ġhand ed
Ġsec ured
ick ed
Ġprob able
Ã© m
Ġmodel ing
at om
ĠC OP
qu er
Ġpolym orph
es ota
i y
J an
w ait
Ù Ĥ
conne cted
Ã© r
ok er
w d
Des pite
ir ts
et c
ĠMass achusetts
ore r
Ġgold en
Ġd b
Un it
lo op
Ġy a
t urn
Ġt out
Ġprosec ution
Ġmicrosc opy
AM E
Ġ&= &
ict ure
Ġsc roll
Ent ry
Ġd ense
Addition al
Ġsol o
ĠH art
N ames
st ud
r ated
Ġl ux
the ir
pl ot
Ã ¹
Ġsp ray
Ġbed room
Ġconscious ness
ĠN F
,\ ,
S ur
f ar
term inal
qu arters
ï¼ ī
s yn
ĠArt icle
Ġapprec iated
Ġdiscl oses
cm d
Ġlegisl ative
Ġj son
Ġ1 33
en ergy
Ġsusp ended
ĠAddition al
Ġvol umes
ock er
Ġenerg ies
Ġl iv
Ġn ons
Ġaccompl ished
un es
Ġbelong s
Ġfat ty
Ġsatisf ying
Ġcor n
è ®
in stein
Th us
D a
Ġsh irt
ili pp
T L
ĠH ad
Ġdriv es
Ġdram atic
ĠS yn
ĠPr im
Ġm L
Ġact ors
ops y
Ġconserv ation
Ġoff ices
D iscussion
us p
ĠA V
Ġemerg ing
Ġar row
d ated
les h
ethe less
Deb ug
Ġlimit ing
Ġgener ator
> ::
Ġde put
Ġres in
GF P
c pp
ĠS oc
Ġalleged ly
Ġn itrogen
Ġal ien
Ġste re
Ġjo ining
Ġm ath
ĠBl ood
Ġatt achment
Ð½ Ð¸
Ġm arch
Ġr if
Ġcirc uits
og s
Ġgovern or
Ġtri es
D ist
ĠW atch
ĠG ree
ĠA k
ĠD ark
ĠO s
ĠAs sembly
Ġsil icon
Ġd ressed
Ġc ried
ĠD om
Ġpolynom ial
Ġre aches
T w
Ġp overty
< <
AS H
Ġo ven
ĠSh ort
est y
ĠPalest in
Ġmembers hip
Ġw ider
C r
ãĥ Ī
Ġh anging
Ġcert ificate
Ġbur ied
/ .
Ġthreat s
Ġr s
199 1
he res
Ġl oyal
Ġ8 00
ph ase
Int roduction
Ġcoron ary
ĠA venue
Ġsymb ols
Ġpe er
< !--
OV A
Ġflow s
ĊĠĠĠĠĠĠĠĠĠĠĠĠĠĠĠĠĠĠĠĠĠĠĠĠĠĠĠĠĠĠĠĠ ĠĠĠ
BU G
b order
EN ER
Ġcritic ism
Ġex ert
Ġsw ord
Ġsurv iv
Ġclos ure
14 4
Ġpun ishment
cept ions
Ġcl othing
Ġclin ic
ï¼ Ī
Ġrepresent ations
Ġprot ocols
Ġ á¼
Ġcir cles
Ġmo ist
Ġmat ure
ĊĠĠĠĠĠĠĠĠĠĠĠĠĠĠĠĠ ĠĠĠĠ
Ġ** *
Ġd ried
Ġo v
Ġexp ense
Ġwebs ites
' (
all as
Ġfrag ments
Ġpull ing
R R
Ġprov ince
ĠAl tern
2 20
Ġvirt ually
in ely
Ġsimilar ity
Ġh i
Ġd ot
å Ĩ
ĠF ive
Ġres istant
c ia
Ġs ie
c ategory
Ġcook ies
Ġmil it
Ġcross ing
Ġh tml
ĠAll en
off s
ä¸ į
Ġindepend ence
ord on
< ?
Ġconsist ed
D W
Ġt ends
Ġprodu cer
Ġmeaning ful
id ity
Ġsw ing
Ġv oted
Ġappoint ment
Ġlift ed
Ġex clusively
ĠPhil adelphia
Ġdocument ed
a Ã§Ã£o
hy thm
l ag
Ġaccompl ish
Ġco pper
ĠH ouston
ĠAg reement
ut s
ĠG aussian
Ġhypert ension
Ġem bar
iss a
Ġaw ait
Ġ19 78
S Y
Ġp ric
ĠTur key
Ġdefin itions
ĠL ive
ĠL at
ĠR un
Ġprom oting
âĦ ¢
Ġenhance ment
Ġwarn ed
L iving
Ġcounter part
å ½
ri o
Ġde emed
ãģ į
11 3
dis p
M enu
ĠAp ache
l it
Ġfor ty
ĠP I
sc ope
Ã© es
Ġincred ible
ĠB ang
Ġa vec
ĠM athe
Ġend othelial
p matrix
ro le
Ġcur ious
Ġrefer ring
c n
he p
ĠHamilton ian
Ġsleep ing
F ree
ut o
x a
Ġcol i
Ġbirth day
Ġg ig
Ġal s
12 2
Ċĉ ĠĠĠ
i u
Ġch ocolate
ĠA li
os er
Ġwe igh
B oth
em at
m ember
* (-
D at
and al
P RE
rict ion
Ġo t
b ad
Ġreg ulate
do i
Ġg rey
Ġdemonstr ates
r age
Ġret ired
Ġind ivid
AN G
Eng lish
æľ ī
é ģ
en um
13 3
im s
e ach
ĠG il
Ġdefic iency
Ġsecret ary
Ġtox icity
he art
ĠN ob
ĠO t
Ġpar se
ĠT ok
Ġinqu iry
Ġse al
ë ĭ
Ġb ases
s creen
Ġdef ensive
ul er
aut h
Ġin hab
Ġext rac
Ġp ic
19 2
Ġt rop
on el
ig ue
l ass
Ġpot ato
Ġacknow ledge
D raw
) }(
Ġ[ '
Ġs per
Ġw idespread
Ġprevent ed
Ġer red
ari ance
Inter face
Ġmanag ing
ox ide
Ġgen omic
Sh ow
ĠB ox
b ital
ĠU buntu
Ġgr ace
i ac
k now
Ġent ities
Ġqu ote
Ġmother s
99 99
Ġre construction
Ġ" âĻª
Ġtou ched
Ġroll ed
Ä Ł
Å Ļ
ÏĦ Î±
he ll
Ġm sg
Ġgrate ful
Ġmot if
T ree
Ġr ings
ĠSc ale
ins ert
Ġcollabor ation
ĠH al
Ġnan op
h ou
Ġind ices
ph ys
Ġforg otten
d epend
gl obal
bib r
sh ort
Ġf iction
iz ers
b est
Ġmot ions
T ra
Ġhistor ic
Ġelect rons
âĢ² -
reg on
ĠB rian
ĠHot el
Ġisol ates
Ġresc ue
Ġsp inal
ĠH it
ĠS pr
Ġar ising
AS K
conne ction
ĠM RI
oph ag
Ġm erc
Ġinhib ited
ĠSh ould
Ġdemocr acy
Ġf ut
x sl
æ Ń
que ue
Ġrece ives
à ²
= >
big g
Ġdec imal
Ġb ounds
Ġencoun tered
Ġproport ional
Ġsn ap
Ġad ip
Ġla pt
ĠEx pl
D ocument
Ġsupp orters
Ġcond em
ol ves
aud i
Ġtit les
x f
â Ĥ¬
im ation
Ġ1 37
Ġt ender
Ġnarr ative
Ġch ances
ĠD irect
iot ics
ĠIn n
Ġhost s
. (
Ġsl ide
OM E
gen eration
0 25
ĠInterest ingly
Ġsupp ression
TE ST
Ġo verex
Ġshe ets
Ġpro state
Ġlov es
sc ious
Ġp ale
ial ize
ĠS L
ĠBro ther
Ġm elt
IS H
Ġlocal ization
Ġpo ison
ĠSum mer
Ġis ot
ĠIm mun
f ound
Ġtext ure
t n
Ġres ident
Ġst ops
C N
Ġang i
) _{
Ġper pet
P ad
Ġob sc
Ġw is
$ ).
ĠM u
14 7
Ġefficient ly
m us
O X
ĠSp irit
Im pl
Ġnon linear
Ġdr ama
Ġpolar ization
ĠAre a
Ġh ired
ĠH aving
Ġr it
Ġsum m
T oday
for all
se q
Ġroll ing
c u
( ){
sem bl
e a
de gree
Ġbreath ing
Ġk an
Ġgraph s
S i
Ġret ros
um ing
Ġsc reens
Ø ³
Ġmod ifications
AAAA AAAA
Ġrel ate
Ġblock ing
Ġvit amin
Ġt el
T M
Ġl ake
S un
- $
Ġstay ing
Ġfund ed
[ [
Ġrad ial
art icle
Ġf itness
000 3
Ġcap ability
Ġb atch
t ask
j avascript
) ^{-
Ġentertain ment
B IT
Ġt ags
m ass
row th
Ġbehavior al
ĠIndian a
d riv
ĠT ai
c z
Ġhe p
19 88
ĠÎ¼ m
it arian
in ent
Ġbase ball
Ġden ying
Ġsent encing
t ry
og ens
ĠSt ation
ade qu
ad der
Ġestabl ishing
Ġsub group
G M
w ich
Ġart s
Ġang les
Ġconst ants
Ġg erm
ot on
}, $$
col l
Ġon t
19 89
th an
ĠDe ath
Ġneigh bour
OD U
Ġbasket ball
Ġgener ations
p ing
C am
per or
f illed
Ġf is
ĠR oy
ĠC orn
Ġview ing
Ġâ Ļª
Ġencour aged
L ife
um my
Ġf itted
Ġpl acement
Ġbu ff
Ġar th
Ġcryst all
Ġret ained
ract ed
ast ing
æ ³
l ich
Ġcomplaint s
ĠN atural
h alf
in ement
h abil
? )
ft en
Ġsl ope
Ġ= \
Â Ī
Ġpre ference
Ġsent ences
u ction
m M
ĠĠĠĠĠĠĠĠĠĠĠĠĠĠĠĠĠĠĠĠĠĠĠĠĠĠĠĠĠĠĠĠ ĠĠĠĠĠĠĠĠĠĠ
Ġparticip ant
Ġa ug
Ġhorm one
ĠMat the
Ġdom inated
form ing
Ġcam eras
t ail
inc oln
bul let
Ġimpro per
ĠSim on
is o
Ġmount ains
ph asis
ĠB all
ĠAn al
Ġembod iment
pie ce
Ð¾Ð ¶
Ġwant ing
" ))
Ġju ice
ĠÃ¤ r
11 8
Ġtem p
Ġh ub
r ank
per p
ĠÂ Ĺ
Ġdecom position
ant h
r andom
Ġreason ing
t ain
Ġelectro des
ĠIn vention
om ers
Prov ider
ĠN ations
cons in
Ġshift ed
pro file
Ġeas tern
Ġcur rency
ĠCOU RT
Ïģ Î¿
r us
ud es
ĠS earch
ĠJac ob
By Id
E q
mpt y
ĠPH P
ÐµÐ º
am y
7 00
em en
Ġoxid ative
%% %%
ĠMinn esota
N av
k k
Ġprejud ice
Ġ19 75
Ġf ond
Ġfr anch
Ġsc oring
Ġz e
Ġindu ces
ĠG irl
ĠHolly wood
en able
Ġsubs id
rit ical
v et
ac cept
ĠLe on
Ġ| \
_ [
Ġfarm ers
g it
Ġir rad
Ġble eding
ĠL ater
Ġdon or
s ym
Â £
ud a
Ġpl ots
wid get
Ġenorm ous
ON G
Ġvir uses
Ġw ore
13 2
ĠX ML
m ind
ĠG ib
Ġoverl ap
++ ;
ĠM O
ro it
ĠP ier
ĠT B
Ġtim ely
In s
Ġh oney
Ġ-------- ---
ll a
Ġaff idav
oc a
Ġinput s
Ġapp end
Ġdeterm ines
D F
Ġd ella
Ġ0 1
int o
rep rene
âĢ ¯
ĠAT P
Ġann oy
Ġtour nament
ogene ity
Ġtyp edef
b urn
ĠW ould
Ġsh ame
U V
Ġf ru
P y
ĠPl us
Ġ1 36
Ġso bre
Ġmac ro
part y
mod ules
ĠF isher
a uc
Ġ19 76
c ong
r ific
x s
2 25
00 28
Ġmater nal
Ġed iting
b d
ĠP ear
Ġdoll ar
Ġem issions
17 5
Ġwas h
Ġprec ip
ced ure
be an
br as
Ġcharacter ization
ĠAtl antic
ĠW ars
cur sor
() :
Ġst ating
re z
S F
Ġlong itudinal
Ġweak ness
g athered
ĠT NF
Î¹ Î±
Ġexpl ored
e enth
ĠT ony
Ġb arg
Ġp ink
Ġt et
ĠP ART
M iss
ĠC hen
P ref
ĠCon st
Ġchalleng ed
Ġrandom ized
Ġwood en
og ue
Ġb ills
Ġim prison
Ġsuggest ion
W indows
ĠH z
AP TER
19 86
oc om
Ġdep riv
Ġel abor
ĠJ ane
reason able
Ġdis charg
ÑģÑĤ Ð²
Ġin ject
b oy
ĠI owa
oprote in
Ġprom otion
ĠS ud
h ma
)* -
Ġw ins
Aut hor
Ġlif estyle
in en
Ġcons erved
ĠTur k
ĠP u
Ġser vers
Ġoblig ation
Ġlegit imate
le e
ber y
g ments
O ct
Ġb ones
Ġb reat
ĠDie go
ĠDu ke
ĠUS B
l arg
Ġt rivial
Ġeng ines
P op
am ous
with out
ĠĠĠĠĠĠĠĠĠĠĠĠĠĠĠĠĠĠĠĠĠĠĠĠĠĠĠĠĠĠĠĠ ĠĠĠĠĠĠĠĠĠĠĠ
C B
Ġgeneral ized
Ġaccept ance
Ġspeak er
Ġob jection
Ġ ------------------------------------------------
Ġis o
ĠP ur
ol ver
ð Ł
Ġres et
Ð½ Ð°
he et
Ġlet s
Ġdisag ree
Ġen act
Ġreg ret
ĠE E
Ġconver gence
v ens
A X
ĠK elly
om ed
è ¨
Ġmed iated
W orld
semb led
Ġcontinuous ly
ir ds
Ġnot ation
20 20
Ġfac ulty
Ġf iring
Ġtend ency
ik ip
Ġst yles
d id
Ġpri est
Ġ19 77
Ġmy ocard
Ġposit ively
ĠSt one
ĠF estival
Ġbe ings
in stance
Ġmay or
Tem plate
Ġacknowled ged
Ġreplic ation
ĠDef ense
Ġg host
uten ant
Ġflo ating
Ġphys icians
IF T
Ġtra uma
Ġex clusion
ĠAr g
ĠA I
P F
$ _{
an al
Ent ity
p ic
ĠÎ¼ g
ĠÑ į
Ġdr um
in ine
am an
Ġad min
Ġal umin
Ġsee ks
enc ia
Ġspect rosc
pro gram
Ġtick ets
Ġpack ed
Ġlack ing
ĠS ports
ynthe sis
ĠWITH OUT
H ttp
c ert
Ġembar rass
ĠIF N
w ave
Ġre ven
Ġsp ir
Ġfact ual
ous es
B Y
Ġse iz
Ġst ared
Ġpept ides
stitution al
000 4
Ġposs ibilities
oph il
+ )
St op
ĠCl inical
ĠSm all
res ource
ĠBit coin
Ġam end
ĠD ocument
ĠÃ ¼
Ġsh apes
at en
es see
D oc
ĠRev olution
Ġnav igation
ex port
Ġsh ifts
ig ration
Ġcon cur
Ġm os
Ġexpert ise
I ll
Ġrest ore
met ry
s quare
Ġcorre cted
17 0
Ġup grade
Ġdiet ary
inter face
Ġrout es
B ER
Ġfr ustr
igh ters
15 5
ed a
Ġterm ination
ĠÐ °
ĠDo ctor
apt ic
Ġheart s
N a
Ġdis se
Ġmel an
ur red
Ġfin ance
Ġrac ial
Ġmin ing
p resent
field s
Ġt orn
Ġmanag ers
Ġretire ment
ĠRel ated
í ķ
Ġemph asis
Ġsh ipping
ore n
Ġ' '
re v
Ġunder go
Ġclaim ing
w en
ex pl
in cess
ig in
Ġb ip
Ġprem ium
Ġsecret ion
19 87
M AT
Ġlaws uit
ĠWith in
ru le
ĠD ise
ĠÐ¾ ÑĤ
Ġbl ade
Ã Ļ
Ġcor p
Gr id
av or
ĠH im
Ġrespond ents
ĠB at
Ġ< !--
Ġb other
m ove
Ġcup s
ĠId ent
Ġsatell ite
Ġcan cers
ĠMark et
ĠS F
Ġfluct uations
Ġrestaur ants
Ġpix els
Ġfil ters
19 85
ĠArt s
ism o
Ġcas ual
G s
OW N
ĠA st
ãģĹ ãģŁ
em on
Ġquestionna ire
Ġprom oted
ĠP K
Ġam endment
IN K
E ffect
ĠN R
Ġf ishing
Ġpur ified
ĠCOM M
Ġne c
ogl ob
b ably
let ter
Ġadv ised
ol in
Ġpurs ue
Ġfant astic
12 1
ri ends
Ġup coming
Ð¾Ð³ Ð¾
13 8
aut o
Ġr iding
Ġimpair ment
en ch
Ġtravel ing
Ġque ue
M o
Ġminor ity
M AN
ens ively
Ġdisappe ared
e very
25 4
ĠF arm
B ody
r g
Ġland ing
Ġcan cell
ĠYou Tube
E s
Ġph ones
ikip edia
Ġinter section
ust ed
ĠC V
Ġag ing
Ã¤ Ã¤
à ¯
qu ality
Ġn est
eng ine
Ġcomput ational
ĠP ow
er d
em ale
ĠL ag
ĠSupp ort
ĠN eg
D iv
j or
for ced
SC s
Ġpl ugin
ĠP B
overn ment
Ä ĵ
ĠOn t
Ġs ons
ĠHow ard
Ġfe ver
Ġstimul us
Ġam big
li um
Ġclub s
id ae
ĠBl ock
Ġto oth
Ġhe lic
) ^{\
it i
vel ope
Ġin cent
Ġe ager
Ġqu oted
Ġp iv
eq n
Ġ25 5
Ġscen arios
Ġf ounder
Ġdis pers
V ector
13 6
Ġc ake
ĠB esides
Ġf ake
ty pen
Ġpoor ly
Cont ainer
s ort
M ich
Ġdam n
ort ic
Ġass et
Ġsque e
Ġprotect ing
Ïī Î½
el and
Ġbiom ark
Ġadv is
**** ,
Ġsl ot
us ive
Ġh ipp
add y
}} =
ãģĻ ãĤĭ
Ġcitiz en
Ġstraight forward
Ġinit iated
Å «
Ġjust ify
Ġpresent ing
Ġap olog
Ġstr at
J S
Ġball s
ĠM B
================================ ================================
Ġact ively
OR Y
Ġcall back
Ġf u
s ave
Ġto mat
ĠAl abama
Ġbu f
Ġmot iv
Ġopt ional
Ġ ĊĊ
St ack
Ġsp here
13 9
V ol
Ġconflic ts
ĠK evin
Ġconsist ency
ãĤ Ī
Ġintr insic
Ġab ilities
Ġn ick
Ġun necessary
own ed
it ated
Ġint act
Read er
Ġb ags
Ġstrateg ic
AR S
g ian
L o
OU ND
ÐµÐ ¹
stand ard
ĠD isc
T I
rif ug
typen ame
Ġpres erved
osc opic
n ia
Ġparticip ating
ĠM C
Ġindic ator
Ġdatas ets
Ġprosec utor
/ âĪĴ
uls ion
ors hip
Ġt a
Ġthere in
Ð°ÑĤ ÑĮ
H ost
rie ve
Ġwra pped
Ġder ive
it ance
ĠJ am
Ġperiod ic
ĠScient ific
m itting
ĠCl ark
am ide
Ġin comp
ĠE ss
Ġdro ps
Ġse cre
pat ient
ar ms
Ġsu ck
l ay
im on
Ġinf ants
Ġto ss
P N
ad as
ĠB M
Ġoffic ially
Ġbath room
re view
Ġminim ize
Ġn urse
Ġcur v
ĠB ry
Ġfif teen
B el
ĠA h
ĠGen er
Ġchrom at
ĠPro perty
L INE
ag ment
ĠB ad
Ġmy ster
rec ord
g ate
ar o
Ġexpect ation
he alth
v ation
ĠT ry
ĠB arn
ĠPort ug
Ġn ie
__ _
Ġevery day
est amp
CON FIG
ĠK a
æĪ ĳ
Ġsp ell
Ġ------------ -
ĠP eters
ĠR F
ĠEm ploy
Ġc ous
Ġstimul i
ap ore
ed ly
Ġinnoc ent
Ġconfig ured
ig m
Ġc erv
play er
ĠHe art
Bl ack
Ġorg ans
âĢĻ .
Ġel astic
n or
ĠH om
Ġat he
ĠW orks
ĠK ansas
ĠD ick
o zy
Ġdis aster
Ġa str
Ġmut ants
ĠSim ilar
ĊĠĠĠĠ ĊĠĠĠ
Ġd ivid
ID E
Ġste am
Par ameter
Ġmembr anes
ĠF a
ĠL ess
Ġchrom osome
Ġlo ans
cont aining
ab ases
Ġ1 38
Ġles ion
ffic iency
H as
ud ge
Ġfunction ing
am med
v ariant
Dav id
ev al
ĠW ales
ou rier
n one
Ġextra ordinary
Ġimplic it
est abl
S al
ĠO regon
Ġsign ing
16 5
Ġaff inity
Ġmacroph ages
Ġdis posed
Ġfig ured
ili ary
ĠPat rick
oc l
os in
Ġr ic
Ġdesk top
âĢĿ )
ĠD I
Ġhe x
Ġgen us
Ġf atal
pref ix
å ¸
Ġf lesh
Ġmorph ology
let al
Ġdown stream
ĠÃ© t
Ġpubl ish
b n
ĠBr idge
Ġconsider ably
m argin
Ġgu ilt
ĠSar ah
ĠE S
Ġneed le
\ .
S ort
ĠM arsh
Ġtra p
Ġsol vent
ĠWARRANT IES
bo ost
13 4
Ġto wer
Ġ1 39
Ġposition ed
à¥ ĩ
ĠIg G
Ġbar rel
st airs
gr id
rele vant
È Ľ
Ġtax p
Ġinf il
ĠB MI
Ġp ent
Ġd ated
ro bl
Ġto b
Ġagre ements
Ġkey board
is che
================ ========
D ay
W est
Ġg ently
ĠM oh
Ġrel ied
Ġcar riers
Ġcount ing
13 7
Ġper me
G raph
Â ¯
ĠB BC
um or
ract ice
Ġnecess ity
min ute
Ġimp aired
spe ed
ul um
ĠG M
M art
V ERS
Ġsl ice
Ġnight s
og y
Ġsix th
Ġcan onical
Ġc athe
ĊĠĠĠĠĠĠĠĠĠĠĠĠĠĠĠĠ ĠĠ
Ġw elfare
ĠU r
her ic
N ULL
Ġphot on
Ġsim ulated
aus ed
ĠCh air
ĠV AL
DE V
Ġdisappe ar
Ġoccas ions
æķ °
h olds
ĠĠĠĠĠĠĠĠĠĠĠĠĠĠĠĠĠĠĠĠĠĠĠĠĠĠĠĠĠĠĠĠ ĠĠĠĠĠĠĠĠĠĠĠĠ
Ġext r
Ġhor ror
Ġphot ograp
V ER
Ġimportant ly
Ġqu asi
ĉĉ ĉ
ĠH ope
St and
ĠT a
i ating
B ased
Ġcoll agen
Ġvo ices
Ġpy thon
Ġdetect ing
Ġtrans ient
ĠM ess
ĠPro p
ograph ical
C ache
Ġpr ide
Ġgr at
ĠLe vel
ĠWis consin
ta h
Ġun de
Ġlit igation
ĠL iber
Ġcont ra
{ }
it ems
Con vert
Ġ12 3
Method s
ĠC ab
_ *
Ġexpl aining
Ġrepresent atives
Ġc in
ĠF uture
Y P
ed it
Ġmut ual
op ter
Ġent ropy
D T
bt n
Ġinhib it
Ġph yl
ĠLe ft
Ġprof ound
Ġstrugg ling
Ġrespond ent
Ġpres cribed
Ġj ew
ĠV ar
\ /
book s
re a
ĠS ure
to x
Ġp aste
HT ML
Ġhar ass
ĠA BC
ĠChrist ians
ĠM ut
Ġappe aring
cons ider
m ia
ĠCommission er
Ġpl acing
Ġper missions
pro fit
ap ing
Ġ12 7
G reat
Ġill ust
Ġpro c
C ap
ĠC ra
Ġal igned
b oth
f ers
RE F
Ġcontrovers ial
Ġ19 73
Ġdistingu ished
--- |
19 84
ãģ¾ ãģĻ
Ġanalys ed
to o
I ter
Ġassoci ate
Ġ0 9
Ġinfl ation
Ġlight ing
Back ground
ĠH ub
osc ow
ĠGovern or
ĠT rib
&= &
Ġcompet e
Ġ[ "
Ġdisp ersion
at ar
ĠE arly
Ġadapt ation
4 50
Ġexhib its
Ð¾Ð º
ĠRec ords
Ġ ug
ĠOn line
FF FF
display style
." "
R ound
Ġen rich
p b
ĠR on
comp onent
P K
Ġc af
Ġst olen
f b
Ġpers istent
Ġxml ns
Ġdemand ed
Ġbi os
$ ^{
Typ es
ail ure
ĠD A
ph an
Ġaccording ly
Ġmod ulation
Ġneu rolog
ock ets
Ġburn ed
ĠØ ¨
id ase
ĠG C
im pl
se a
ĠC lick
ro c
requ ire
Ġincub ation
Ġinvestig ating
Ġannounce ment
Ġrob ot
P ublic
s ed
ĠFI LE
Ġg olf
Ġgener ates
ĠP erson
Ġsp o
ĠNet her
iss ue
ĠJ osh
ĠOver all
h ist
z t
ĠLab our
ĠF T
Ġhapp iness
Su per
Ġrepl acing
Ġ ]{}
Ġcoll ision
ac ious
sl ant
Ġconsider ations
Ð° Ñģ
ĠH ind
A uth
Ġo c
ogen etic
li est
CR E
e an
wr itten
sh ape
Ġpip eline
F i
ĠD IS
ĠSt ock
Ġhand led
Ġye ast
}$ -
Ġh ug
Ġch ampionship
ĠB ud
ĠViet nam
Ġc er
) }{\
av ailable
f ox
Ġveget ables
ential s
ĠP ubl
ol er
he x
Ġout break
PO ST
Ġfre ely
Th ose
Ġkne es
Ġs ich
ul se
Ġn p
Ġ19 72
N ever
ar ity
ĠN i
à¤ °
ĠCom mand
æ ł
ĠCon vention
if act
Ġdim ensional
pass word
Ġh an
op ol
ĠG ene
ĠB attle
========== =
el er
ow ski
G iven
eterm ined
- ,
Ġrel ies
Ġinstitution al
Ġfeat uring
Â ¡
. \[[@
Ġign or
in os
V I
Ġto d
Ð¸ Ð»
20 4
ID S
Ġlocal ized
ĠR ow
Ġmer it
Ġtransl ated
ad min
Ġ19 74
Ġy ard
ĠGold en
ph ones
Ġsaf ely
acc ount
ĠFoot ball
Ġg low
Ġsold ier
ĠUp on
0 24
Ġwis dom
ose x
b one
Â Ķ
S B
AC C
Ġdis cre
Ġnot ing
ut ers
ĠFr ont
ah oma
att ribute
er ge
ĠMary land
Ġsl ip
Ġcar ries
ãĥ ĥ
Ġabsor b
ĠH A
Â ²
op athy
Ġr aces
ĠMan ager
Ġw ise
Ġbelong ing
Ġorder ing
Ġind ict
Ġb g
Ġe ine
Ġpass enger
ator ies
[ (
re ction
Ġinnov ation
Ġneighb ors
ab stract
ict ional
ĠCh ange
ĠPh oto
Ġcour age
ĠFore ign
Ġflex ibility
Ġk g
Ġmort gage
CH AR
!! !
by tes
Ġpure ly
qu al
Ġcyt oplasm
Ġschem es
Ġcooper ation
Ġpr ayer
P arent
A ug
en o
p ublished
Ġqu it
D IS
ĠK h
ĠCo oper
oy d
ac o
ĠL ED
Ġprivile ge
iz ar
Ġadvent ure
Ġsp ite
es y
á ¹
map sto
lim ited
ĠG P
Ġf right
ul ous
Ġas pir
ra pper
bin ant
Ġar ises
ĠL as
---------------- ----
Ġless ons
gen ic
15 7
T om
ĠL C
Ġgrav it
En ter
ĠPhil ip
Val ues
ĠA mb
Ġaccount ing
Ġg i
Ġ ^{
Ġteasp oon
ĠS quare
Ġform ulation
Ġgraph ics
es h
Ġas h
å Į
St ore
Ġsa il
ĠÎ ½
Ġp ole
ĠB ureau
reg ister
Ġcreat ure
17 7
ĠH ur
Ġgr asp
Ġsto pping
ĥ ½
uc id
ĠFil m
ĠV o
ĠL incoln
ard o
Ġres erve
Ġtown s
Ġbas al
Ġhe mat
Ġadhes ion
Ġli able
Ġbi en
ĠB alt
Ġbrilli ant
Ġw ings
Ġviol ations
Ġphotograph s
Ġnurs ing
OL D
it ored
be it
, âĢĻ
Ġg ard
Ġnucle i
ãģ Ŀ
or ic
Ġbar riers
ĠMount ain
ĠR ick
ĠG raph
Ġoper ational
p gen
Ġg aze
Ġsl ave
ĠP itt
Ġpanc reat
ĠAr thur
Ã© d
Ġthrow ing
Ġv ic
Ġiniti ative
S orry
é ĸ
ĠF un
Ġ âĢĻ
ç ī
Ġreal istic
ess a
0 30
D an
å¤ §
ĠN ation
ĠM T
Ġmathemat ical
Ġeng aging
ol ph
Ret urn
Ġrecur rence
Ġpredict ive
čĊ čĊ
Ġen um
ig o
Ġaddress ing
Ġt weet
appropri ate
ĠThe ory
Ġindivid ually
Ġcontribut ing
st im
Ġins pection
Dev ice
ĠS ie
ĠT i
Ġc ave
Ġvolunte ers
us ers
Ġg ains
w ick
Ġag enda
Ġsub stances
S k
ĠC ells
resp ons
Ġamong st
} '
ĠV ery
Ġant ioxid
ĠUn less
Ġperm its
ĠB ol
Ġpost operative
ÏĦ Î¿
ĠF C
Ġpar liament
Ġjud ges
Ġsubstr ates
D onald
ĠI mp
Ġatt orneys
Ġcytok ines
Ġconfig urations
Ġsupp ressed
ag ers
ĠFore st
Ġv as
ou ver
Ġdepart ure
ĠPh ill
Ġbutt ons
Ġex ch
Ġexcept ions
Ġill um
Ġt ear
ĠD B
ĠAd ams
Ġt ies
Ġan est
in ery
Ġins pect
Ġtem pt
ellig ence
oc on
vere ign
ĠF ac
ĠU lt
Ġs ne
Ġmot ivation
Ġins ights
ĠPr ice
Ġcomp ly
Ġcount ed
St ar
ad ows
Ġtob acco
ig ger
m ov
ĠS ym
Ġb ol
isc hen
Ġr ug
}} ^{\
Ġpo etry
f g
Ġbroad er
sp in
Ġsing er
Ġver ified
Ġm ud
Ġsc ared
ĠSt ory
ĠUn it
Ġhe sit
Ġmuse um
sw itch
ĠM otion
Ġgly c
r idge
Ġneur onal
Ġinter ven
anche ster
Ġconvers ations
ĠV eg
iqu it
Ġeth anol
Ġd irty
p n
ill o
.[ ]{
oid al
Ġ ------
J ack
the m
Ġimp ly
ĠĠĠĠĠĠĠĠĠĠĠĠĠĠĠĠĠĠĠĠĠĠĠĠĠĠĠĠĠĠĠĠ ĠĠĠĠĠĠĠĠĠĠĠĠĠ
Ġprim er
ĠT OP
Ġincred ibly
ur ches
ĠF actor
ĠTenn essee
Ġquiet ly
ĠTH AT
Ġfluores cent
Ġlength s
Ġun employ
ition al
ĠC NN
Ġlaw yers
Ġenter prise
Ġanalyt ical
Ġgra ve
ĠBook s
ro d
Ġsubt le
ĠSt ore
init ely
Ġmer its
Ġd amp
Ġre fr
ĠAfghan istan
Ġre ception
Ġsear ched
t f
Ġsing ing
Ġh itting
roph ic
ic ion
Ġo var
ĠS el
Ġhun ting
Ġexpand ing
w iki
Å ĳ
Ġgrad uate
m akers
æ Ķ
ic he
19 0
e z
ather ine
ĠDig ital
ĠE M
19 80
F ull
Ġriv al
ĠH ans
Ġd ental
Ġsurv ived
ĠRet urn
Ġ ï
om on
P UT
Ġsyn tax
ix el
ĠMi ami
r ans
l ated
Ġvar ies
14 3
ag le
Ġatt ach
Ġchar ging
Ġprison ers
ĠExec utive
ĠWalk er
Ġrem arks
ĠS audi
id x
* \<
Ġsol ving
Ġextrac ellular
È Ļ
Ġlog in
Ġinter fer
Ġ$ ('
Ġun ity
Ġed ited
ĠL LC
az ione
ĠRober ts
Ġm art
Ġcl ouds
is ot
Ġeth nic
Ġ3 50
ĠOb serv
Ġinflu ences
vis or
it ol
ĠB io
Ġmethod ology
p end
Ġl act
ĠStud ent
Ġe q
ess ed
Ġrese m
a an
et al
se lected
m n
ur bed
ĠS ky
Ġcent rifug
Ġdis contin
ĠV E
15 6
.. \
Ġmetast asis
icip ants
Ġenc oded
Ġmy el
Ġdecl aration
Ð°Ð ´
.. .,
Ġ$$ {\
ad ers
Ġimp ose
her ry
ĠC ass
B re
Ġ-------- --
Ġord in
ĠMathe mat
Ġc ant
ex per
unt ed
ĠT am
port ation
Ġ19 68
Ġdev oted
re port
or ious
ĠVictor ia
Ġperform ances
Ph oto
ĠR ules
b age
Ġadvert is
bar a
hed ral
product ive
ĠMex ican
ĠT ool
âĢĻ ,
Ġb os
if def
Ġmob ility
ing ton
is ite
qu ire
Ġdebt or
ĠE ight
ag ain
ĠJ ay
f ly
Ġcomb ining
ro ck
FA ULT
ĠH u
Ġres idential
Ġadopt ion
Ġplace bo
Ġf irms
Ġprof its
ĠMean while
Ġalbum s
er on
Ġtri ple
Ġ0 2
' >
Ġh ire
Ġpaint ed
}} }(
Ã© g
Ġexc use
Ġsal ary
Ġle ather
Ġacqu ire
15 3
r isk
Ġin adequ
Ġimpact s
ĠF all
Ġconst ru
Ġless er
ric hed
kl ahoma
Ġbes ides
P al
S ession
l ied
Pan el
m ount
ĠMor gan
ÏĢ Î¿
Ġk a
Ġeth ical
Ġsent enced
ab is
ul ing
Ġguarant eed
Ġinhib itory
R ule
" ?
rif ice
Ġt ons
ĠF inal
est e
ĠMiss ouri
}} }_
Ġst airs
Ġt utor
Ġcontrovers y
tem p
Ġtrans itions
Ġsort s
ĠSil ver
ĊĠĠĠĠĠĠĠĠĠĠĠĠĠĠĠĠ ĠĠĠĠĠĠĠĠĠ
Ġgr ants
ĠPh ilipp
oc amp
pro of
ĠP U
ĠC t
Ġdesc ending
Ġhighlight ed
AC H
In tern
xx xx
Ġdis position
Ġev olved
Rec ord
Ġbr ut
Ġa in
Ġur ine
ol as
Ġsuscept ibility
P ers
Ġ0 8
Ġwor n
ĠNether lands
Ġr ounds
ĠSe attle
ĠS ab
Ġaff irmed
Ġs ink
B et
Ġplan es
ĠO UT
ĠCommon wealth
ge bras
Ġevalu ating
nut rients
Ġlig and
Ġsav ings
Ġsoph istic
ĠMod ern
S n
od ot
; "
ĠCl aim
\] (
Ġneglig ence
Ġint estinal
ĠC e
ĠAnth ony
Ġsett le
writ er
Ġj ag
Ġatt ending
ĠM oon
cript or
Ġf estival
de cl
Ġa rom
z ip
[ $
PE CT
Ġavoid ed
ip h
al ine
lar ge
Ġ" <
o ys
ĠHaw ai
le ading
It ems
B F
Ġgen otype
Ġme ets
Ġout standing
Ġw rap
å ·
k ed
Ġmon itored
pe at
m iddle
ment ed
Ġj oke
ij k
ĠN ev
Ġcoc aine
L oc
Ġshe ep
Ġconven ience
ĠGu ide
Ġc i
Ġoverwhel ming
ä¸ ª
Ġassert ed
Ġab ortion
ĠB rief
ig a
ert o
Ġmem or
A U
ri k
Ġref use
ÏĦ Îµ
at isf
č ĊĠĠ
Ġinf ra
ĠC it
Ġin ch
Ġarr ays
Ġgast ric
Ġro cks
row ser
Ġdiag onal
Ġcont ention
Ð¸ Ð²
Ġadv ances
Ġarg uing
Ġbad ly
e u
ĠV ideo
rel ation
on z
Ġbo ards
ĠM I
` .
ik ing
de lete
ãĤ ¯
cle an
ĠÃ º
Ġg li
N othing
cy cle
ĠMc G
ress es
id ade
' ],
$ ;
Ġd an
ĠMon te
ĠE N
gen erate
m ers
comp ass
Ġmod est
Ġhand ler
v ideo
ĠB an
Ġhuman ity
hip s
ĠN ode
19 83
cur s
E F
Ġbr ush
atch ing
Ġd it
Ġhaz ard
Inte ger
ack er
ud o
Ġgrab bed
w p
Ġconduct ing
Ġdefe ated
n als
Ġdistrict s
av age
Ġdis par
ed er
Ġpass engers
ĠAcc ount
Ġcle ared
á ¿
Ġevolution ary
c over
Ġlist ing
Ġl id
Ġf aint
ivers ary
), $$
M a
Ġs ont
ĠMuslim s
Ġ12 1
ĠDe bt
ĠS in
ĠM oscow
Ġtransl ate
Ġc ure
yl ation
ĠEx press
C re
Ġsub stitute
Ġmist akes
Ġflu or
Ġrec k
Ġa us
Ġless on
ĠA bs
ãĥ «
Ġrecruit ment
Ġtem ple
icul ous
ĠUn like
hold ing
Ġan x
Ġpublic ations
Ġs es
Ġengine er
Ġl am
ens is
che ll
ĠD ad
Ar gs
Ġg reet
-------------------------------------------------------------------------------------------------------------------------------- --------------------------------------------------------------------------------------------------------------------------------
w at
ĠK al
Ġdet erior
Ġinv asive
Ġemail s
ĠS elf
mark et
ed ed
c ould
Ġb ent
== =
ol k
und o
IC K
Ġra ises
ĠIns urance
Ġcomm e
ĠAn na
Ġspeak s
Ġw ounded
ĠResp ond
Ġd ur
ĠRet urns
å ¿
)$ -
ĠSe lect
3 50
ĠJ ason
ann on
Ġess ay
Ġlapt op
Ġad s
Ġresid ue
c as
R oot
es ian
Ġcere bral
im it
se en
te enth
Ġobject ives
Ġi OS
V A
OO K
bid ity
Ġvi able
Ġrig id
qu in
ĠC ould
Ġthorough ly
ar ound
I ED
Ġpro xim
Ġh ast
ut her
Ġc ats
S K
Ġtunn el
Ġutil ize
Ġdiscuss ing
or dered
3 60
Ġun iqu
Ġproject ed
ĠDis ney
Exp ress
Ġpain ful
Ġunf air
W T
ĠâĢľ [
Ġmanufacture rs
Ġp up
ĠKenn edy
c ross
ĠKe ep
Reg ister
ĠE P
ple ments
0 27
Â ľ
et e
14 6
Ġinter rog
Ġ19 71
Ġw age
ĠC reek
Ġlob by
Ġnot able
[ -
IN FO
Ġ( <
ĠP i
Ġimmig rants
ĠC art
Ġa wards
B i
\ #
ou stic
Ġste ep
Ġexp ed
habil itation
eral d
Cons ider
Ġso vereign
umb led
ĠD ead
Ġw ished
Ġfocus es
Ġdat abases
her ical
ĠR O
plet ion
ĠMc K
ĠT y
Ġw er
F ound
an ia
Â ħ
Ġautom ated
Ġbal anced
Ġl on
ĠThom pson
Ġ19 69
Ġet ern
ĠFour th
f ocus
AR N
Ġl ag
cos ystem
z ens
Ġin con
Ġcyl inder
t ocol
py thon
ĠA le
{ $
j oint
Ġalter ations
Ġoxid ation
Ġload s
Ġch ips
App ellant
w ind
Ġarrang ements
Ġex clude
r ically
Ġcomposition s
Ġdi amond
ĠF IT
Ġnurs es
ĠL oad
è¡ Į
ĠS ex
ĠW rit
res ults
Ġhighlight s
Ġwh ilst
iz za
print ln
Ġnegot iations
ĠD rug
Col lection
ĠBe ing
Ġdens ities
re lease
gen eral
om at
ĠÅ Ł
Ġinnov ative
p ire
Ġcrit er
em b
Ex ample
CO DE
ĠD allas
Ġins isted
trans form
Ġ0 4
S ettings
tw itter
Ġincons istent
Ġprolong ed
ĠF alse
bs ite
ĠC SS
Ġorgan isms
p ub
et o
de velop
oth y
in ters
14 9
n def
dep th
Ġce iling
B ytes
Hand le
us ions
ĠâĢ ŀ
Ġreview ing
i am
ĠĠĠĠĠĠĠĠĠĠĠĠĠĠĠĠĠĠĠĠĠĠĠĠĠĠĠĠĠĠĠĠ ĠĠĠĠĠĠĠĠĠĠĠĠĠĠĠ
Ġfet al
ĠE mer
Ġcerem ony
Ġ[ $
ĠSand ers
Ġrem ed
ug ar
li ver
c ost
Ġdelet ed
Ġad sor
ĠSy d
ä¸ Ĭ
ij ing
99 9
Ġdevelopment al
Ġdist ress
Ġsh aped
( {{\
Ġclin ically
Ġrem edy
ie re
st en
Ġmanif old
de hy
Ġp ose
Act ive
AL S
Ġextract s
Ġconstruct or
ah l
ER Y
N ational
Ġconcentr ated
iv ities
20 5
Ġexpect ing
ĠH um
ym ers
34 5
U ES
ĠÎ¼ M
Eval uate
Ġwal ks
Ġne on
Ġra pe
Ġempir ical
Ġbi ology
ozy g
com put
Ġgather ing
ÑĨ Ð¸
Ġjump ed
Ġtrans istor
Ġchair man
Ġmethyl ation
Ġrele ases
eles c
D ialog
è ĩ
v c
Ġrest ored
ĠBuild ing
Ġg aming
W illi
Ġent reprene
app er
ĠPol and
A ust
Ġf ier
ÑĢ Ð°
) ~
ä ¾
E mpty
is ible
Ġcatal yst
ĠB and
å ī
se par
at omic
IS S
ĠC ole
Ġ-------- -
Ġ ure
St ill
le en
br ack
="../../ ../../
Ġt i
Ġrep orters
ä ¿
Ġb ass
Ġexc itation
Ġdram atically
B ank
ĠO pp
ĠCh annel
n ik
ĠA K
ob last
ÑĢ Ñĥ
ex cept
Per haps
Ġu h
Ġcal endar
ĠMic hel
Ġc rown
ĠH ung
b ach
Ġdispl acement
Ġsh ore
Ġint im
usal em
Ġcurv ature
ĠSwed en
Ġpro x
@ "
à¸ Ļ
Ġshow er
n ell
s ample
å Ģ
H ash
Ġappro ximate
Ġdismiss al
t u
T G
m itt
oc o
Ġ ê
ful ness
at z
Ġw ars
ĠSing apore
link ed
ĠCar ter
Ġpass ive
ĠS ong
Ġcompan ion
Ġn aked
ĠP ed
ĠInd ians
is an
Ġopp onent
ĠJava Script
xt ures
ĠCru z
Ġint u
Ġthem es
ä» ¥
am l
Ġfant asy
M icrosoft
________________ ________________
hav ior
Ġconfirm ation
ul pt
to ols
is se
de g
Ġmarg inal
Ġj unction
ĠH op
Ġdist al
Ġhoriz on
Ġr acing
cont rolled
pl ugin
^ ^
Ġprev ents
ĠIn cre
2 10
io let
Ġlad ies
OR S
19 8
Ġanim ation
ĠM ort
Ġafter wards
Ġseem ingly
ĠD ave
Ġmyst ery
T im
Equ als
ĠIm port
Ġ------------ --
Ġth ou
Ġg em
ĠAust in
Ġtranscript s
Ġ2 40
ĠÃ ¶
Ġpost ing
Ġp orn
ĠAl ice
Ġfore cast
Ġdr ift
ĠS ep
h ai
Not es
Ġchamp ion
S pace
Ad apter
Ġsuscept ible
Ġcons olid
Ġcor ruption
Ġhe ated
j amin
Ġdevelop ments
or b
Ġmod er
Ġappell ate
Ġmedic ations
Ġinsert ion
ĠEvery thing
[ ]{
ĠC G
- )
oph ys
Ġproceed s
ay ing
Ġr ush
Ġbul let
Ġ3 60
Ġ19 40
Ġst ro
o ons
ĠChar lie
O ption
fe re
Ġphenomen a
Ġle ase
Exp ression
Ġme als
ĠÎ ¿
av irus
Ġhab its
Ġs ends
Ġprom ises
ĠL am
Ġvirt ue
Ġdist ribute
ack ed
Ġgast ro
Ġw rest
or us
ist e
ĠM M
F ont
ment ation
W riter
in yl
d frac
č č
ĠN ich
f p
Ġintrodu cing
//////////////// ////////////////
)/( (-
Ġ0 5
Ġconstit utes
14 8
Ãĥ ÃĤ
Ġelect roph
Ġband width
que ous
Ġimplement ing
Ġw ishes
}} )$
as ures
ç §
Ġsh ops
Ġinit iation
m ir
Ġast hma
ĠA RE
D om
Ġt ale
Ġinsp iration
Ġden oted
ĠÐ¿ Ð¾
ol utions
Ġhom ogeneous
Ġun defined
ĠT reatment
50 9
add le
13 1
Ġphosph ate
Ġconsum ed
ing ham
Ġcelebr ate
D ATA
ãĥ ª
Ġk on
Ġrub ber
ul atory
ĠW right
ĠO ak
car bon
W ARE
Ġrecon struct
ÃĥÃĤ ÃĥÃĤ
M ask
Ġin ference
Ġqu art
by e
' -
Ġvi ability
VERS ION
Ġdivor ce
Ġdesign er
Ġrelax ation
Ã§ Ãµes
}$ )
Ġf erm
B N
Ġrank ed
Ġspont aneous
OR K
0 26
Ġsk ip
qu ired
Ġh older
Ġswe at
Ġlaug hing
ĠW ind
Ġcollect ing
qu oting
Ġindust ries
Ġt amb
Ġthread s
Ġc DNA
ĠTr ade
est a
Ġdepos ited
ĠG ard
ĠD ur
Ġcomp ass
ĠĠĠĠĠĠĠĠĠĠĠĠĠĠĠĠĠĠĠĠĠĠĠĠĠĠĠĠĠĠĠĠ ĠĠĠĠĠĠĠĠĠĠĠĠĠĠ
Ġmain stream
Ġe uro
F actor
m ol
ãĤ ¢
Ġver te
a wn
Ġform ul
Ġfurn iture
Ġassert ion
ĠCol lection
un gen
Ġtub es
Ġh orn
Ġmetric s
odynam ic
Ġstreng then
Ġinvestig ators
Ġassert s
Ġparent al
Ġpron ounced
m ys
Ã ²
ĊĊ ĠĠĠĠĠĠĠĠĠ
\| _{
Ġillust rate
s ent
Ġpred etermined
Ġthere after
ĠM ove
}{ {\
Ġb er
ĠMar ia
fl ag
Ġprogn osis
19 82
Us ers
ĠIn clude
ĠNe ither
22 9
)\ \
Ġo ct
Ġchemical s
ĠUk raine
ĠSt aff
Ġp ens
Ġdis hes
Ġ12 2
ĠIN TO
Ġfranch ise
w t
Ġback up
Ġswim ming
im eter
Ġf oss
Ġbit ter
g reat
) }}
B en
Ġple asant
ĠV I
Ġmar ry
lic enses
k ov
Ġsound ed
Ġconve x
Ġh ind
ion ic
ĠSur vey
} )$.
ĠApp endix
Ġcrit ics
c apt
à¸ ²
Ġtrig gered
ĠS pect
mar ks
ĠK r
au er
Ġdef ence
Pr int
qu ant
Ġterror ist
H y
ĠLeg isl
Ġalle le
Ġdep ict
Ġc el
ĠC ulture
av y
č Ċĉĉĉ
in fected
Ġmin eral
15 4
A H
Ġfor b
F UN
ĠOlymp ics
sp ot
Ġhand ful
} :
Ġ" '
Ġachie ving
ON T
Ġold est
L V
O s
ĠCom b
x d
Ġc rop
Ġpress ing
ĠFrank lin
| _{
Ġ12 9
s ix
p al
17 6
Wh ite
Ïĥ Î·
reg ion
er ver
Ġinstruct ed
Ġfor cing
Ġrece ipt
plic ation
Ġint ensive
Ġmot ivated
Ġab road
Ch anged
Ġh iding
iz ard
Ġmicrosc ope
Ġrele vance
Ġsp ine
Ġgrow s
ĠStud io
ipp i
Ġred ist
ĠP ap
Ġdown town
Ġdr inks
Ġoper ates
Ġr anks
Ġphilos oph
Ġ ."
V ideo
Dis play
ĠCont ent
Ġcab in
w oman
ĠE t
J son
15 9
Ġselect ing
T ry
2 12
Ġcompr ised
Ġcon ced
ĠO il
Ġdemonstr ating
Ġc attle
R ect
Ġcl ip
ĠP as
S am
R uss
ĠEd itor
ĠCh ap
Ġlic ensed
Â ķ
Ġoccup ation
Pa ul
ĊĠĠĠĠĠĠĠĠĠĠĠĠĠĠĠĠĠĠĠĠĠĠĠĠĠĠĠĠĠĠĠĠ ĠĠĠĠĠĠĠ
ĠCount ry
ĠWH ERE
in line
and ra
Ġback ed
Ġwor ship
ĠL ic
Ġpro st
Ġmet ers
ĠN ik
ĠUp date
ĠAut o
Ġdep icted
v able
it ate
Ġpun ct
Ġver b
M IN
unn y
EM ENT
d k
Ġag on
amp ed
Ġjournal ist
Ġrev ised
) </
Ġbe ars
Ġcreat ures
Ġgu ards
idd ing
2 16
Ġ0 3
ĠOrgan ization
ĠApp ro
Ġâ Ĥ¬
Ġsurve ys
B est
^ ](#
Ġre ass
Ġ" %
) ](#
ac char
och astic
ene z
Ġjust ified
im ore
ĠF ab
Ġsucceed ed
æ °
ou bt
is ch
Ġroy al
čĊ čĊĠĠĠ
Ġ12 4
." ,
x b
Ġcyt otox
Ġthy roid
Ser ial
Ġth umb
Ġbon us
Ġret ention
Ġst aring
W ould
en h
18 7
Ð¸ Ñģ
Ġaccel er
Ġg rap
Ġmer ge
ĠM un
c v
ĠR OS
ĠR ap
ĠI de
umn i
ĠÃ ī
small caps
Ġdel icious
ĠN at
æ ŀ
Ġabdom inal
ĠO cean
Ġreported ly
Ġcom edy
Ġb aking
i ors
Ġremind ed
Ġen velope
ĠHar vard
if ndef
ens ation
p adding
Ġ$ |\
Ġpro xy
Ġcon current
Ġdes erve
trans fer
Ġir rit
Ġagric ultural
Ġw anna
Ġ19 67
Ġcontrad ict
******************************** ********************************
Ġ Âł
ĠB ull
Ġre vel
month s
Ġcerv ical
Ġreg im
Ġcircul ation
bet ween
ĠWh it
requ ired
Ġspread ing
Ġg amma
Ġslow er
ĠH ell
olog ous
ĠO klahoma
ĠSyd ney
Ġunder going
ĠE ve
14 2
Ġerr one
Ã¤ l
ĠOnt ario
Ġimag ination
k an
ĠS V
el ed
ĠDet roit
Ġgod s
Ġf oo
Ġweight ed
Ġdev ast
Ġgl anced
") );
us hes
Ġst ones
pl ug
Ġequ ity
fol io
oh ist
Ġconj unction
Ġhost ed
Ġrot ating
ĠEngine ering
R ich
Ġas leep
20 8
Ġwas hing
W idget
t p
aret te
Ġmand atory
og onal
F in
ĠS ort
Ġen v
Ġrecommend ation
Ġsu pers
ĠDe cl
Ġdelet ion
oll ary
c ourse
pl er
f red
Ġg ym
ĠRuss ell
Ġre active
Ġas sembled
ĠTok yo
Ġdialog ue
Ġrecom binant
an ne
Ġlo ops
ar Xiv
ĠG ordon
Ġcomb ust
Ġam id
ĠG ab
U SE
b g
rit ic
Ġgar lic
ĠM anchester
ethyl ene
Ġstation ary
Ġtrans verse
igen ous
Ġpoll ution
Ġund ers
Ã§ a
Ġdiab etic
ĠF le
Ġ19 30
Ġtext s
con struct
d river
Ab stract
Ġampl ification
j k
G D
ax y
ĠT ed
t ar
L i
Ġex empl
ĠM Y
Ġdu ct
Ġult ra
ĠRob inson
Ġalumin um
j ob
re ck
od a
Ġca ution
ĠH i
pro ve
amb ling
Ġexp end
Ġd ock
ĠE T
lim it
Fl ags
ĠAn ne
ĠF ried
iss on
ache l
h pp
15 2
en ix
å ¥
m c
Ãª me
driv en
Ġcom ic
fil ename
s ince
Ġsc ulpt
ĊĠĠĠĠĠĠĠĠĠĠĠĠĠĠĠĠ ĠĠĠĠĠĠ
Ã ī
Ġtherap ies
Ġsc attered
ĠB art
Ġb ell
Ġaw k
Ġmes h
20 3
C opy
äº Ĩ
Ġe cosystem
sett ings
it one
ig t
Ġintellig ent
Ġs ocket
Ã¼ n
Ġgot ta
ĠOther wise
Ġpo et
Ġrat ings
ĠProte ction
gorith m
d one
Ġdr unk
Ġhep atic
ĠD VD
Ġsw allow
alt ies
Ġant enna
Ġcho pped
Ġflow er
Ġa queous
cept or
=" ../
Ġdiscipl ine
Ġalk yl
H H
Ġst yl
Ġaver aged
pat tern
Ġclust ering
s il
ĠT ask
Ġelim inated
ĠAff airs
Ġwarrant y
iss ippi
ãģ ĳ
Ġpart e
it ic
V ery
ĠE conom
or rh
2 24
ĠFif th
ĠH il
_ ;
Ġliter ary
Ġb is
Ġglass es
Ð» Ñı
ĠInt el
Ġis lands
Oper ation
]- [@
ĠR aj
Ġpen et
j an
Ġd ining
00 10
r and
, [
te ch
M al
Ġ25 6
è §
ĠAl an
Ġactiv ate
Ġcol ony
he im
Ġb ore
Ġexam ining
Ġmalign ant
\ {\
Ġuniform ly
2 30
T ell
Ġse ized
ĠCap ital
ĠI mm
Ġ12 6
Ġw ages
å® ļ
R untime
ĠG FP
Ġ{ "
Ġwhere by
Ġcou ples
N ESS
Â ¹
og gle
). \
R ober
Ġp ays
F ollowing
M EM
Ġno vo
i op
Ġhipp ocamp
old ing
ĠK E
ĠIn v
Ġport s
Ġtop ological
æ İ
18 8
ĠBe ck
Ġ1 64
Ġrecall ed
Ġout door
Ġvent ricular
2 11
Ġspect rom
ĠH TTP
air y
Ġswit ched
Ġvolunt ary
Ġdiscl ose
Ġindict ment
R est
Ġsh ar
3 01
k h
Ġutil izing
Ġvalid ated
Ġexpon ential
Ġinst ability
Ġall ocation
im o
Ġtrem end
Sh ort
Ġc oup
ĠG er
Ġincre ment
Ġg rip
og rams
Ġde ce
Ġun stable
Ġpres cription
ĠVis ual
Ġsan ctions
J SON
>> >
) +\
ig s
Ġche er
* :
ĠB P
Re al
A ST
ĠK om
Ġbe ef
Ġleg acy
Ġsim plicity
ÏĦ Î·
Ġcot ton
ĠWal ter
Ġrit ual
Ġd ough
Ġr am
Ġab ol
let t
il ateral
Ġhigh way
ĠTem ple
N H
Ġcorre ctions
ĠT arget
ind a
Ġnow here
Go ogle
à¥ į
ĠG ENER
Cl ose
Ġcorrespond ence
Ġl ui
d m
Ġcontain ers
ĠM ann
$ ),
leg ate
ĠED IT
g ra
ĠĠĠĠĠĠĠĠĠĠĠĠĠĠĠĠĠĠĠĠĠĠĠĠĠĠĠĠĠĠĠĠ ĠĠĠĠĠĠĠĠĠĠĠĠĠĠĠĠ
Ġprim ers
Ġan onymous
Ġaccel eration
Ġfract ure
Ġapproach ing
Ġanticip ated
ĠC atal
Ã¶ n
ĠÏĦ Î¿
ĠL iver
amb ers
ig ious
Ġen abling
Ġpreced ing
Ġen rolled
if ference
ãĥ ©
writ ing
ĠSen ior
Ġcondition al
ĠW olf
Ġb ay
il ization
Ġtr unc
ĠEx p
b ank
Ġcyl ind
Ġcriter ion
ĠB UT
ix on
co very
ĠPhys ics
Ġcharacter ize
Ġfra ctions
ĠInte gr
Ġd y
Ġg ifts
Ġcor rupt
Ġve in
Ġel ong
Ġess ence
Â Ĵ
ĠBack ground
ĠV i
bour ne
č ĊĠĠĠĠ
ĠM aterial
Ġag grav
19 5
Ġwhe els
Ġdon ors
ĠCor ps
Ġreg ards
ig ens
ĠÃ ħ
X ML
Ġleg ally
Ġland ed
L icense
Â ©
}_{ {\
Ġbr ands
EN CE
Ġult ras
c ents
typ edef
Ġpre fix
C apt
ĠRec ently
Ġcommand er
ĠD ir
Ġens uring
ĠT ag
Ġr anged
ater n
ĠLouis iana
Ġfac ial
Ġattract ed
The refore
Î¼ Î±
0 28
exp ression
Ġall ies
ue z
ĠAss istant
ĠO cc
st ock
) {\
ĠNot ice
Ġpri ze
K H
Ġconnect ivity
Ġh arsh
ĠMor ris
Ġrel atives
red uc
Ġend ogenous
ĠM essage
Ġspec ification
ind ependent
. <
=" /
ĠFr ame
CL UD
b ie
é Ļ
C are
ĠGree ce
18 5
Ġmar ine
g p
Ġsac rifice
OS S
Ġsynthe sized
ĠM ember
Ġhyp ox
ĠAr gent
Ġstre ams
Ġ0 6
Ġover r
ĠT ro
ire cted
Ġcry ing
Ġquestion ed
ĠW inter
âĢĶâĢĶ âĢĶâĢĶ
Ġa fore
Ġcompl ain
Pl atform
Ġrefe ren
Ġmount ing
16 9
oci ation
ĠV ector
Ġathlet es
Ġvalid ate
ĠEvery one
ul ates
Ġavoid ing
st yles
Ġkin etic
Ġd irt
37 5
L ICENSE
er ce
Ġmechan ics
Ġshel ter
Ġadapt ive
ĠI ron
ul ence
iter ator
Ġabund ant
Ġkill er
M edia
Ġel ite
S ure
Ġgl ance
E mail
Ġval ley
Ġnever theless
ĠA A
Ġass ured
^{ *
in ic
ĠBet ween
Ġliber ty
Ġst raw
Ġra p
Ġt ut
Ġimp ressed
Ġcl oth
Ġs Äĥ
ash i
)) ?
un ting
C ond
Ġsubject ive
ĠS ite
Ġge ometric
Ġ ic
Ġtrans fected
et ically
Ġsitu ated
bor ne
ĠS I
================ ======
17 9
â ķ
he ne
os ures
ĠW ang
l ad
ĠAP PE
ĠW el
Ġsens ory
s omething
Ġno ble
Ġrecru ited
Ġr abbit
Ġcru el
ĠCom pl
ĠC IA
ut f
Ġneut r
Ġ' /
Ġmyocard ial
0 40
ĠDoug las
Ġgovern ed
Ġfeas ible
ol ation
Ġd ashed
com b
Ġsear ches
Ġlow ered
itzer land
ot or
R ob
big l
ĠE dition
Ġv ocal
Ġgo ogle
Ġ ery
she ll
Ġcort ical
Ġsummar ized
Ġcontribut es
Ġdemand ing
_ **
ĠAuthor ity
Ġi o
Ġaccompany ing
Ġrec urs
per iod
Ġconsequ ently
ĠJer usalem
Ġshe d
d n
Ġbl ast
ĠM g
ĠF el
P ress
view s
l ibrary
t k
Ġperform s
ap olis
ient o
Ġ19 64
Ġpseud o
Ġres ign
Ġhead quarters
Ġim plements
* ),
char acter
ĠC B
Ġup stream
Ġto ll
u ke
f are
Ġcred ibility
ĠC K
Ġfis cal
Ġsh ake
Ġres ort
r ang
Ġpl otted
t l
Ïģ Î±
Ġexpl oration
Ġir regular
ĠÄ ĳ
Ġsens ing
æĹ ¥
ic ient
ĠGra ham
Ġs its
å ±
ĠI ss
Ġhydro ph
Ġaltern ate
ĠSy rian
ĠScott ish
F eb
16 6
Ġcomp iler
S ave
Ġalt ogether
ĠWar ren
S outh
)) \
Ġcont amination
Ġdirect ors
Ġpre ferences
Ġol ive
Ġoblig ations
Ġfel ony
ĠTai wan
is y
~ -
ĠÐ »
ĠV ice
at able
). ](
Ċĉ Ġ
UL AR
2 64
Ġes p
Param eters
Ġ< ?
is hers
e conomic
) -\
Ġl ord
id ation
m ill
Ġb ot
p rec
Ġst ain
g ency
Ġclear ance
Ġspeak ers
Ġdec iding
Ġport able
big r
Ġfib robl
AR K
Ġassess ing
Ġm ant
× Ķ
ry ption
ĠK y
Ġcol ored
Ġco in
Ġoutput s
ill in
Ġprodu cers
he imer
Ġto ile
Ġwhis pered
Ġinhab it
Ġbe ating
ĠN H
Ġw and
\* ](#
Ġinfect ious
Ġsk illed
ĠD im
g oto
chn ology
Ġgrant ing
Ġlist ened
Ed itor
:" ){
Ġun to
ĠPh arm
mer cial
Ġeth ics
O FF
r ust
t c
ĠU l
20 6
EN S
Ġantib iotics
j ack
ven ile
Ġaccommod ate
ol ute
Ġport ray
Ġinc idents
v id
ug g
Ġpubl ishing
Ġspecial ized
Ġproduct ivity
dehy de
Ġfear s
ĠS ant
Ġle mma
is ations
ĠW y
Ġp and
Ġtransplant ation
Ġopp onents
ĠJ oh
iv an
Ġcert ified
Ġf est
Ġl amp
g h
Ġfavour ite
Ġbg color
ED IT
Ġc ad
Ġ{ @
S il
Ġaltern atives
Ġpro gen
ĠL in
~ \
Ġa est
Ġtop ology
á ŀ
Ġspokes man
! \
ĠC os
Y ear
p it
Ġarbit ration
ĠVeg as
ĠAnton io
Ġchem istry
Acc ount
0 33
Ġun t
C U
] }
ĠP ho
Ġrem and
Ġfru its
B undle
Q UE
o qu
M ath
) )$
9 00
f re
Ġwa ist
Ġgu ided
import ant
Ġrom antic
Ġinst inct
Ġass ass
Ġpract ition
lo at
ess ment
rec ated
Ġ' \
Ġd ass
ĊĠĠĠĠĠĠĠĠĠĠĠĠĠĠĠĠ ĠĠĠĠĠĠĠĠ
Ġ ich
Ġcampaign s
16 3
Ġcomp ile
Ġneg atively
Ġmicro bi
Ġvac ation
anc ell
i Ã¨re
A I
MO DE
Tr ump
Ġd ign
act ivated
Ġcomp iled
Ġinfer ior
on ucle
ith m
AP P
Ġbr id
Ex per
ï¼ ļ
uck er
A ud
ĠU tah
Ġsophistic ated
get s
16 7
ĠDe ep
åı ¯
Ġext ensions
ĠM and
po ons
Ġ ÙĪ
Ġprec ious
Ġd ors
Ġs ou
ĠN K
D im
Ġactiv ists
Ġar rows
ĠPetition er
20 2
Ġprotest s
f requency
Ġrender ing
ĠA wards
act ivation
augh ters
i ative
L IB
Com mon
Ġext ensively
Ġindic ators
Ġwhe at
ER N
ĠHill ary
Ġne at
Ġtra it
Ġnanop articles
C ould
Ġrest ing
s pect
Ġover se
Ġpe cul
Î¯ Î±
Ġwithdraw al
u ating
com a
Ġ0 7
ĠCl oud
ĠS omething
C ur
Ġz ones
ĠDef ault
ĠR at
Ġtra pped
ĠLabor atory
an ing
Ġ ud
ĠN ative
Ġstri kes
ig hed
20 7
Ġcontact ed
P rim
Ġl uc
L I
Ġequ als
Ġc ette
Ġl ane
Ġby pass
ric s
Ġadequ ately
Ġlab our
Ġ\ +
Ġc rick
Ġexpl oring
Ġrail way
Ġ ----
Ġest Ã¡
W in
Ã ħ
Ġatt itudes
ĠK l
Ġdiss olved
op ing
ĠM ER
m icro
ĠNAS A
Call back
Ġcomprom ise
elle es
ĠL ang
st a
Ġg ri
Ġre jection
Ġpract ically
G ame
pt ide
Ġ( âĪĴ
Ġr ally
r ub
Ġplasm id
S N
U ID
æ Į
Par ams
ĠLu ke
Ġlov ing
Ġrel uct
ĠR and
ÃĲ Âµ
ĠAl bert
Ġs ul
Ġhung ry
cl k
h um
> ();
Ġtum our
tic a
ist ically
Ġafford able
Ġenjoy ing
19 81
to String
m ust
um atic
ĠAtl anta
ĠR u
T B
Ġsevere ly
ĠP red
ah n
Ġtrust ed
Ġlean ed
Ġb orders
Ġqual itative
Ġpneum onia
F M
if i
im ated
Sh are
Ġan k
Ġdou b
_ (
Ġv or
arent ly
Ġv es
w estern
Ġpresum ably
Ġor bital
Y et
ĠSupp lementary
ord inate
Ġhouse holds
. --
ĠM ind
[ :
Ġforg ot
ĠEx pression
ĠStat istical
Ġm apped
Ġreprodu ce
Ġillustr ates
Ġtranscript ional
res istant
Ġinflu enza
Ġelement ary
ĠMay or
ãģĹ ãģ¦
A bs
Ġult r
ĠPr int
ane an
Ġcyt os
Ġâī ¤
sh are
struct ure
T IME
Ġinst antly
cler osis
b rew
ĠMatthe w
Ġbi opsy
ĠProv ince
Ġoptim ized
Ġproxim ity
Ġopp osing
ĠAir port
Ġdeploy ed
ĠÑģ ÑĤ
() ->
Ġover head
$ ^
ochem istry
Ġdiss ip
C ourt
Ġf art
Ġworth y
Ġ( _
= $
Ñ Ħ
ĠC HECK
Ġur ged
Ġrecip ient
Ġsp are
? :
s ight
0 29
Ġexcit ement
= #
ĠG ulf
Y R
Ġear liest
ĠAng el
V P
s r
un ks
er cul
18 9
Ġaffidav it
Ġstream ing
count ry
ĠD al
Ġthrom b
ĠâĢ Ŀ
Ġinter active
d z
ĠF ourier
Ġneg lect
ĠKent ucky
ĠPol y
pol y
Ġob s
ĠSe qu
Ġsub div
Ġterm in
Ġs oup
L en
Ġnucle otide
Ġsustain able
pc bi
Ġsu cc
ĠÎº Î±
Ġwarm ing
ĠP UR
ai ver
Ġen compass
Ġg aps
Ġover view
23 1
âĪ Ĺ
24 7
e ce
ores cence
Ġpopular ity
Ġinter pre
if iable
re x
b rief
Ġb od
Pro perties
ĠH em
Ġunivers ities
Ġpancreat ic
fil m
Ġcolle ctions
ĠN os
iff s
Ġfollow ers
ĠM aj
ĠĠĠĠĠĠĠĠĠĠĠĠĠĠĠĠĠĠĠĠĠĠĠĠĠĠĠĠĠĠĠĠ ĠĠĠĠĠĠĠĠĠĠĠĠĠĠĠĠĠ
W as
]^ ,
Ġconf ined
re k
ĠTurk ish
Ġ19 65
Ġexerc ises
ro st
Ġpack aging
ch ip
ĠP ope
ge ant
}{ (
Ġveter an
ĠT M
rop ol
net work
Ġs ab
Ġvill ages
S everal
w he
Ġpa ired
åĪ Ĩ
ĠSum mary
Ġfl ed
r ous
at um
Ġdesper ate
Ġmar row
UT F
cc a
ĠS TR
av an
Ġde alt
F B
ĠTe ch
J ames
H ER
Ġ7 00
ĠC redit
h box
Ã¤ m
Ġo w
Â Ĩ
ĠB ody
ĠInd ones
per ature
: #
ĠS K
Ġmanufact ured
Ġencour aging
ÃŃ n
Ġin complete
Ġhol y
ĠEx ample
16 4
Ġpolit ician
H I
Ġb ite
Ġ19 20
th al
at ivity
) ->
level and
Ġcurrent s
ann ah
iss ance
Ġlog o
in formation
Ã¥ r
ĠM agn
Ident ifier
Ġslic es
ĠG OP
3 14
k top
Ġg ates
M arch
Ġrec ycl
Ġrepos itory
Ġexperien cing
19 7
Ġmet als
Ġse aled
ĠBe ijing
C ard
lic ations
Ġdes cent
Ġfle et
Ġsac rific
ell es
er os
Ġs v
Ġfix ing
ze ch
Mat rix
in ces
Ġamb ient
pp at
Ġcomp elling
Ġf al
Ã ®
ãģ£ ãģŁ
ent i
s b
ĠEx change
out heast
Ġloc us
Ġrev ision
ĠMot or
Ġsoc io
Ġub iquit
all a
Ġdynam ical
ĠC N
Ob j
Ġsubstit uted
EE E
FT WARE
ĠMiss issippi
em phasis
Ġultras ound
cl oud
ad ic
Ġanch or
à ¨
Ã³ w
Ġad vers
ro v
RE CT
Ġp iano
Ġcal ibration
ĠC ow
Ġdemocr atic
as se
Ġa o
Sum mary
st an
50 5
Ar ch
A lex
Ġj acket
Se pt
ĠS EM
Ġr amp
Ġwood s
Ġs z
ĠJ os
Ġf ocal
Ġs ag
H aving
ht hal
Ġalloc ated
Ð¸ Ñĩ
do es
ĠAn ti
ryst al
p f
ad just
Ġarter ial
Ġsc rap
alk yl
.' "
Ġart ic
W D
Ġsh aking
Ġconv ince
ear ly
Ġaw ful
S em
H P
( __
Ð¾Ð» ÑĮ
l oss
Ġ" ",
T ON
Ġw ard
ĠD oc
Gl obal
U G
Ġ------------ ---
ĠN ap
Ð¾Ð ¿
Ġpropos als
L eg
Ġprov ing
ĠFin ancial
es ters
Ġdecl ar
V R
own er
ĠD ouble
Ġrel ie
ĠSe ason
Ġstim ulated
Ġint end
De cl
tr l
h ill
Ġregul ating
Ġf ancy
==================== =
ops is
h ind
Ġle mon
å ĳ
ĠMal ays
) '
ia e
Ġcook ed
Ġtrans it
ĠB ron
ĠB os
gu ard
âĢ ³
Ġout lined
pl ess
Ġcathe ter
ĠAn imal
ter y
Ġinf ring
ĠChar acter
Ġpropag ation
F ore
^* $
long rightarrow
Ġd read
row ing
l on
prote cted
u pt
AL SE
ĠG as
v ariable
gr ounds
19 79
Ġfirm ly
Ġdead ly
n p
ĠÐ¾ Ð±
Ġemploy ers
Ġprom otes
Ġa uch
Ġappear ances
I l
Ġun comfort
Rev iew
Ġv ous
Ġdo zens
Ġbe ans
Ġpl aus
15 8
Ð¸ Ð¹
ĠC ut
ĠBe at
~~~~ ~~~~
ĠO d
============ =
Ġhope fully
ĠMar ine
Ġ17 0
ĠBru ce
Ġcorpor ations
C u
Ġbl adder
r x
åĩ º
Ġs Ã¥
Ġjournal ists
S en
ĠLaw rence
m el
Ġc raw
re cted
H ome
Ġdel ta
B LE
ex pr
M ASK
Ġd war
ass ador
Ġfat igue
ĠM eg
Ġon c
ut er
C ho
t v
Ġreserv oir
ĠRec ord
Ġqual ities
Ġprem ises
L ock
Ġsal ine
Ġpredomin antly
ÑĤÐ¾ ÑĢ
ĠG ray
ĠIs lands
g ie
ateg y
d irect
Def inition
Ļ Ĥ
Ġexcept ional
ĠP ack
ĠÑĩ ÑĤÐ¾
K K
ĠSen ator
Ġmetall ic
ag ine
anc el
Ġd ye
Ġdeliver ing
ĠS now
Ġun law
Ġagre es
Ġsm iling
x sd
Ġs ib
ĠW ard
ĠSaf ety
ĠCast le
ĠG arden
Ġto k
Ġgl ory
)[ (
Ġra pp
Ġaccept ing
Ġat e
Ġbab ies
ĠRem ember
ĠDise ase
inte ger
Mich ael
Ġinteract ing
ĠSTAT ES
Ġd x
Ġfil tered
ĠB aker
Ġp unch
æ Ĭ
Ġdro pping
Ġp ier
ab i
Ġquant ified
ĠL iter
ãģª ãģĦ
w al
ĠN ig
C ent
č ĊĠĠĠĠĠĠĠĠĠ
is ol
ĠT OD
è¦ ģ
Th ough
Ġinadequ ate
Ġven ue
Ġent ang
I Z
ĠM uch
ĠL oc
] =
ĠY an
ĊĠĠĠĠĠĠĠĠĠĠĠĠĠĠĠĠ ĠĠĠĠĠĠĠĠĠĠĠĠĠ
Ú ©
Ġdiss ent
Ġch urches
Ð¸ Ðº
Ġc asc
âĢ¦ âĢ¦
ĠâĻª "
ond a
Ġco il
Ġtra ins
ĠT GF
Con clusion
Q R
app ly
n il
k el
Ġlim b
Ġd ancing
ĠHe y
Ġking dom
15 1
Ġun cle
ĠP el
Ġst ip
c iting
DE F
Ġpossess ed
Ġdocument ary
Ġcor ners
17 4
ĠM obile
ĠÎº Î±Î¹
et on
K ind
ĠPro cedure
ill es
Ġfle w
M en
Ġre cre
Ġg am
ort ex
ĠHit ler
ĠRel ations
Ġlegisl ature
Ġspeed s
Ġantib iotic
S pan
Ġ. $$
ĠJ enn
Ġ19 45
Ġdem ographic
Ġcar go
ĠJ ess
DE BUG
Ġpan ic
Ġaff air
Ġdepos it
0 39
ut ils
prot otype
m k
Ġ14 4
Sh ould
Ġdist ribut
Ġen riched
greg ation
Ġcol leg
And roid
ian ces
Ġthreat ening
por ter
ob by
ĠL anguage
ro b
Ġcum ulative
Ġtables poons
Ch annel
Th rough
H a
ĠJ en
Ġtr unk
\ ;
Ġcan vas
s q
all ed
Ġin effective
ĠG h
Ġcomp artment
Ġb und
Ġexplos ion
ic iary
,\ ,\
sh ared
L ondon
S uch
Ġsy m
az ole
Ġstruct ured
Ġ" ,
ĠS ound
Ġvent ure
Ġthe ater
Fig ures
Ġmulti pl
Ġt itled
Ġsu ite
Ġ2 20
Ġt id
Ġend orse
Ġdie lectric
ĠB uck
m ine
ĠW R
ac ular
Ġo le
Ġ ib
sc ore
Ġdiv ine
Ġco herent
ĠL au
22 2
ĠWH O
Ġprison er
op les
Ġcalcul ating
Ġinvest ments
ĠE ver
Ġrec urrent
Ġs isters
OP T
F ollow
Ø§ ÙĨ
ĠCh i
ĠSw itzerland
ing e
Ġsusp icion
3 20
Ġpar ams
E urope
_ -
Ġtack le
det erm
ens itive
Ġanaly zing
T erm
par a
ac cur
Ġmaint ains
c ause
Ġgravit ational
Ġdepend ency
Ġlung s
Ġb a
Ġdisadvant age
ĠAN OVA
Ġnewsp apers
U h
Ġcent ered
K n
Ġcr ude
Ġtw isted
j ug
le in
K it
uns afe
ĠA u
s ame
G reen
Ġad op
ac s
ĠL PS
ren a
ç ¬
J une
Ġz ijn
30 6
Î¼ Îµ
ĠSte p
ĠA ve
Ġtest ify
{ {{\
ak o
æľ ¬
+ (
th ink
Ġsu ited
Sub ject
14 1
!! !!
Ġreflect ing
$ :
ĠGr ace
Ġw ip
M or
ic ode
k ar
N M
ĠW L
ĠReg ion
Ġtraject ory
ĠG ary
Ġg n
Ġpath ological
Mean while
Ġafore mentioned
ak h
Ġhe y
sche ma
Ġprogn ostic
Ġovar ian
ĠJon athan
am en
Ġconf idential
Ġs our
s ol
^ [
r up
Re lease
Ġescap ed
Â ĩ
Ġl ith
Ġtight ly
Ġlux ury
Ġimag ined
P ATH
R D
d ark
}) =
nc ia
Ġsat ur
ĠH ost
Ġur inary
Ġdeploy ment
M ad
Ġclick ing
e as
ell ants
f actor
C oll
u in
Ġret reat
th ird
comple x
ĠPalestin ian
Ġembry os
ev a
Ġf are
^{ {\
ĠO k
PO SE
Ġpro ton
Ġfem in
ĠN elson
ĠY ang
l ament
Se lected
Ġthr ust
ars hal
Ġv ine
Ġd ictionary
000 6
ĠTra ining
Ġtri angle
AN S
ĠRe ference
Ġdefin ite
Ġdeput y
30 5
ĠC ox
30 2
om eters
ĠBen jamin
M ED
ĠV II
Ġ, \
Ġbre eding
ĠL ane
load ed
ien cies
Ġann iversary
Ġtri ps
Pl aintiff
h idden
ĠS Y
Ġan a
ps y
ĠCON TR
amb ig
Ġn ost
p es
m ont
ut ation
ãģĵ ãģ¨
Ġover flow
Ġinter faces
on de
Ġincorpor ate
Ġend e
ĠÎ½ Î±
ob b
Ġep id
Ġunder ground
Ġprob ation
init ial
Ġsupplement ed
Ġcle ver
Ġin oc
Ġrid iculous
Ġfin ishing
q q
erv es
Ġh alt
Ġsub section
br aska
s y
E Q
sub ject
Ġ14 5
T EXT
Ġdef icit
od o
ĠE mb
Ġt mp
Ġgen re
Ġelev ation
2 80
Ġqu otes
o ffic
ac ies
pl ain
18 4
Ġcontin uum
ĠRe quest
ong o
Ġc es
Ġp ants
ob i
Ġvari eties
ĠÐ· Ð°
Ġch im
ĠS EC
ĠL ET
By te
IN TER
è ª
ĠJ u
ĠR oom
v d
Ġup ward
Ġir relevant
Ġel ucid
Ġapp le
é Ŀ
ĠT ree
Ġw ir
Ġconv ictions
on ce
Ġimpro ves
Ġenrich ment
Ġv apor
}^ *
2 32
Ġsub stitution
it err
li ers
ĠOR DER
c ancers
Ġcompr ise
Ġsurprising ly
å¹ ´
Ġful fill
Ġtr ab
Ġabnormal ities
Ġclar ify
Ġeduc ated
Ġtra iler
Ġb icy
Ġtw ist
Ġfl ip
Qu ant
Ġd ub
Ġorgan isation
En abled
S yn
E arly
ĠAppe al
pl atform
Ġp ac
inc ing
or iginal
Ġc ement
ĠF ollow
Ġâ ĨĴ
As ync
Ġl in
Ġped iatric
ĠT C
ĠDe an
ĠE li
Com ment
Ġso y
Ġp ile
om ics
ĠP riv
ĠComput er
ug h
]{} .
\ %
Ġbi ochemical
bo ards
Ġco ated
Ġform ally
Ġrese ction
Ġp ir
B rit
ĠE conomic
Ġst ochastic
st ory
ĠN M
vel t
Ġstat utes
19 6
Ġaccess ed
h ook
Ġj av
\ )
Ġhor rible
am us
j query
Ġnovel s
ades h
Im port
ct l
ĠSN Ps
pr ice
to ol
Ġcab inet
ING S
Ġ19 66
N L
or ption
om o
Eng ine
ç Ļ
Ġ$ ^{
ĠG ET
s chool
ari ans
ĠT u
D ig
Ġtra ff
ĠUS E
Ġterror ism
Ċĉĉĉĉĉĉ ĉ
ĠB uff
and um
Ġun des
r f
5 12
S omething
Ġunf ortunately
ang les
ĠPh ilos
De lete
pan ic
INS ERT
Ġqu eries
ĠRes ources
th a
ĠIn stit
Ð¾Ð ·
Ġflow ing
ST ATE
Ġhon our
ov al
PD ATE
Ġbub ble
OV E
ĠB AS
Ġant im
he ro
ĠInt elligence
hes ia
L ight
sk ip
aint ies
fe ed
P rom
ĠR aw
u et
Ġback ward
Ġconne ctor
Ġpharm aceutical
crib e
Ġboot s
Ġout line
Ġdisappoint ed
Ġrent al
Ġh ay
Ġposition ing
om ing
br ace
D s
erm al
' ))
put ed
Â ³
: </
ir i
F iles
Ġinf ar
mod els
P ool
ol ip
}_{ -
J ECT
J apan
Ġ" _
n atural
Ġshout ed
ĠSO FTWARE
ĠTh ink
Ġin ability
ĠBr un
sh ire
ist le
Ġkick ed
Ġelect romagnetic
Ġproduct ive
hydro xy
ĠN BA
l av
ĠD omin
Ġas sembl
Ġp ause
Ġbl end
Ġw it
Ġ -----
Ġnot ification
ĠC OVID
ous ing
Ġpotential s
j ournal
pa rency
2 60
AN CE
30 4
Ġoccas ional
Ġinter fere
Ġcult iv
Ġsqu ares
script style
Ġcl one
Ġawk ward
ĠK IND
ĠCoun sel
Ġheter ogeneity
19 4
Ġf ires
P ay
d st
Ġknock ed
al in
Ġcous in
Un iversity
ta it
id ays
ĠGr iff
ct ive
Ġterm inated
ĠM ov
S an
Ġsli pped
ĠTh ings
Ġcaus al
form ula
vir uses
S ample
ĠP os
Ġf ence
Ġhost ing
og an
al ous
Ġmed al
ĠO THER
Ġabsor bed
Ġpo em
Ġwind s
Ġin coming
R ear
Ġfol k
UT H
Ġd aughters
ĠPh ase
ah a
Ġrefr iger
ĠRes ponse
Ġ19 2
Ġorient ed
ion i
Ġcompl ained
Ġan omal
spring framework
sc ar
Ġbil ateral
ĠN P
ĠMar x
Ġrefuge es
ĠL iving
ir s
uk i
Ġj Query
us c
ĠTw enty
n amed
ex ists
supp orted
Ġrespond ing
G al
Ġjun ior
K O
, ,
f at
0 44
ri el
Ġcon e
Ġcons iders
pro perties
Ġretros pective
Ġsurviv ors
A f
ve e
Ġr hythm
Ġtrou bles
ãĢ Ģ
(" #
cp u
Ġm ism
Ġent ers
Ġengine ers
ĠPD F
ay ed
des ign
Ġco aches
Ġconstit uted
Ġins ured
Ġg it
Ġn ap
ĠH erm
it ical
ĠPrem ier
ri ors
Ġadjust ing
pre p
Ġfriend ship
ri en
f und
Ġprob es
IS E
ens en
ate ur
ĠSte ven
Ġus eless
ag u
Ġdischarg ed
Ġpreced ent
L EN
Ġhydro x
2 17
Ġun lock
Ġpur ple
} )$,
C ast
Ġre productive
v or
N s
am on
act iv
test s
Ġe urope
Ġinev itable
Ġsil ly
Ġl ang
ent ric
Ġsl ides
Ġstrugg led
Ġend less
test ing
Ġac oustic
ĠP ent
Ġse ctors
ĠBow l
L ib
Ġqu ark
J ava
Ġ| =
Ġad herence
le ans
Ġsoon er
Ġsp herical
m om
Ġgar age
Ġcomp ress
Ġqual ify
Ġ" -
f ood
Ġ\ ~
yl er
ĠG A
param eter
Ġre ign
Ġover t
Ġst ocks
Ġme g
Ġchar ity
24 5
am ents
Ġcro ps
um ble
Ġple ad
Ġdis able
Ġb ump
Ġke en
ĠSte wart
FLAG S
pp y
Ġbreak down
Ġit eration
force ment
In valid
be at
s ay
Ġsh ifting
Ġstrong est
Ġcam ps
Ġn inet
res et
L ayer
Ġug ly
, --
Ke ep
ĠW i
ĠH P
ys et
Ġsu its
ĠB ishop
e ight
ip al
ĠB us
Ġen larg
Ġele ven
arc el
ĠCOMM AND
ĠRog er
Ġsub mission
m os
ig r
Ġpecul iar
cc cc
cer y
Ġrob bery
ĠN ort
New s
Ġque en
Ġprov es
ĠF low
Ġal i
Ġst ub
Ġinvent ory
ĠCo hen
Pro of
L F
ĠS ams
ĠM os
ie val
Ġcook ie
à¹ Ī
... )
Ġret rieve
Ġsimpl er
Ġcig arette
Ġpath ogenesis
======== =======
u u
g ot
ex tern
Ġprox imal
\ }$.
ĠEx ception
Ġout let
Ġp ued
ĠW rite
Ġsk ull
23 5
3 10
Hel per
ĠR y
d ose
Ġcontem pl
Ġik ke
Ġutil ization
Hel p
List en
D ES
sens itive
ĠR ic
am ount
Ġin appropriate
sim ple
Ġassum es
ĠBalt imore
spec ial
Ġa pert
Ġimplic ated
P erson
Ġb ail
A pril
ĠJud ges
Ġ13 1
ĠEv idence
Ġrelax ed
ĠR ol
æ Ħ
set s
Ġexec ut
Ġpubl isher
ac ial
ĠP ET
16 2
Ġconduct ive
Ġal ike
t ion
Ġh ills
ĠNew ton
Ġgirl friend
Ġthe ft
Util s
yl on
og g
ĠInst agram
Ġthe e
Ġspecial ist
ĠĠĠĠĠĠĠĠĠĠĠĠĠĠĠĠĠĠĠĠĠĠĠĠĠĠĠĠĠĠĠĠ ĠĠĠĠĠĠĠĠĠĠĠĠĠĠĠĠĠĠ
m ouse
ĠO kay
osp el
ĠØ§ÙĦ Ø
G ER
d ifferent
Ġtravel ed
Ġcann abis
Ġoff enses
Ġorth ogonal
---------------------------------------------------------------- ----------------
ĠMarsh all
29 3
19 3
Ġharm ful
Ġex terior
0 32
000 7
ud son
ÃŃ s
Ġspectrosc opy
âĢ¦ .
Ġvacc ination
Ġd t
U K
Ġmal aria
og ly
Ġsimult aneous
ropol itan
g iving
per ial
Ġgener ous
iz ontal
Ġcelebr ated
Ġfl aw
Ġembr ace
Ġrecord ings
ĠS eg
all enge
con tr
CH APTER
as ury
ĠT ab
Ġtw in
ĠS ize
Ġsol uble
Ãº n
Ġcolon ies
Ġscr ut
en cer
ĊĠ Ċ
ĠB illy
ĠThe atre
otyp ic
ĠD rive
Ġback ing
riv ing
¿ ½
Ġauthentic ation
Ġcatal ytic
Ġreve aling
Ġlight ly
ĠM ust
d ynamic
Ġcircul ating
ie u
Ġm aj
ĠT X
C OL
in cre
ĠSwed ish
ĠN AT
Ġfilter ing
ĠE ND
hen yl
Ġemploy ing
ĠV eter
Ġm ang
ch aft
Ġb ast
ĠI O
ab y
ch lor
ĠPol ish
l ia
Ġdisplay ing
Ġcon ject
ĠA the
x it
Ġshe ar
Ġj ack
br is
Pro te
A ge
? _
ĠL V
Ġbank ing
Ġrespons ibilities
ĠV e
ĠChrist opher
Ġgall ery
ke e
pan el
user name
Ġfil ename
Ġche ek
(- \
Ġtri um
aus es
ĠSte el
ĠCurrent ly
Ġan isot
ĠH AVE
rad ius
Ġle ver
asp ase
Ġmin us
G ive
Ġpr inter
Ġaggreg ate
ĊĊ ĠĠĠĠĠĠĠĠĠĠĠĠĠĠĠĠĠĠĠ
op ard
ĠZ n
am ino
v ic
ĠSim ple
Ġautom obile
Ð¾ ÑģÑĤ
ĠF ly
bold math
Ġwer den
Ġl un
Ġbo ats
quest ion
N K
}}( {\
a very
Ġmoist ure
Ġlack s
ĠSing le
ab c
ĠJeff erson
ĠB ond
ĠB ed
j ango
Ġmanip ulation
Ġest a
000 8
f u
Ġcomp lementary
Ġregul ator
Ġn s
class es
friend ly
Ġprohib ited
ke ep
F unc
Ġbug s
Ġcombust ion
und ers
ĠSm art
Ġsw ift
é ¡
Ġh ollow
ĠQu estion
par allel
ĠP O
urg ical
Ġgra ins
ĠShe l
Ġpath ogens
Ġmetabol ites
ĠN MR
19 78
ĠOr acle
orm s
sh ips
Ġbra ins
Ġmyster ious
Ġachieve ment
Ġmetast atic
Am ong
Ġd iox
Ġtable t
ĠC leveland
ag m
ĠReg ional
M Y
Ä± n
6 68
an ium
ĠE PA
ĠOther s
ĠA ld
Ġim pe
19 76
ĠÃ ª
M ove
17 1
Ġstandard ized
Ġdig est
Â ĳ
A x
Ġd ich
att ed
pow ered
Net work
r ors
Ġfl ies
Ġmon ster
0000000000000000 0000000000000000
Ġbet ray
Ġpsych iatric
Ġsympt om
ĠIn put
ĠÐ¸ Ð·
out ube
g on
Ġnot ably
Ġintegr ate
ĠPark er
um bered
Ġchart s
Ġimprison ment
G IN
Ġclar ity
on ies
m outh
N orth
Ġf ait
Ġab used
Ġchromat ography
int estinal
Ġspir its
ne ath
Ġax ial
in ar
Ġrest art
Ġpr Ã©
ãģ Ī
Ġd w
Ġg y
Ġspl itting
Ġb ov
Ġen semble
ĠRec ent
Ġinv ite
pend icular
ĠS cal
Ġblood y
Ġhier archy
ĠB erg
Ġcycl ic
AN K
ĠEv ans
AD D
ex it
p d
Ġep ic
I con
Que ue
cont roller
c od
ar in
ch r
Ġtouch ing
Ġ/ ><
ĠF erm
Ġred und
Ġcast le
ĠÅ ¾
Ġcatal y
Ġanalog ous
roll ing
akes pe
d istance
vent h
He alth
ĠB row
ĠDep uty
ĠOlymp ic
Ġper ox
ĠI E
ul us
Ġqu arters
inc ial
ĠPART IC
Ġneut roph
ĠT ell
S end
Ġgraph ic
ind le
p kg
Ġoverex pression
Ġloc ate
Ġcan al
ement ia
Ġcoord ination
Ġpra ise
ĠBar bara
Ġcytok ine
Ġpress ures
un its
R C
et itive
j our
as a
Ġp aused
ĠM es
Î½ Î±
Ġt une
Ġreal m
ĠEurop a
Ġst ays
D er
Ġb ru
app le
Ġa an
Ġc iting
ĠC ert
Ġcomm erce
Ġ16 5
ur ities
ĠB urn
ĠS ide
Ġadm its
il ized
Ġequival ence
form er
Ġrank ing
38 4
Ġ19 63
ĠDel hi
Ġpeace ful
Ġw ounds
et ta
ĠK i
Ġpath ology
Ġ2 25
ç ½
Ġsam pled
br ane
âĢ ł
Ġshock ed
ĠSw iss
Ġref usal
Â ª
Ġun changed
od ox
ĠSt ra
B ro
Ġobser ver
CH ANT
Ġh ockey
Ġde formation
V s
ĠRepresent ative
ov o
ETH OD
rec ip
Ġbatter ies
ĠĠĠĠĠĠĠĠĠĠĠĠĠĠĠĠĠĠĠĠĠĠĠĠĠĠĠĠĠĠĠĠĠĠĠĠĠĠĠĠĠĠĠĠĠĠĠĠĠĠĠĠĠĠĠĠĠĠĠĠĠĠĠĠĠĠĠĠĠĠĠĠĠĠĠĠĠĠĠĠĠĠĠĠĠĠĠĠĠĠĠĠĠĠĠĠĠĠĠĠĠĠĠĠĠĠĠĠĠĠĠĠĠĠĠĠĠĠĠĠĠĠĠĠĠĠĠĠĠĠĠĠĠĠĠĠĠĠĠĠĠĠĠĠĠĠĠĠĠĠĠĠĠĠĠĠĠĠĠĠĠĠĠĠĠĠĠĠĠĠĠĠĠĠĠĠĠĠĠĠĠĠĠĠĠĠĠĠĠĠĠĠĠĠĠĠĠĠĠĠĠĠĠĠĠĠĠĠĠĠĠĠĠĠĠĠĠĠĠĠĠĠĠĠĠĠĠĠĠĠĠĠĠĠĠĠĠĠĠĠĠĠĠĠĠĠĠĠĠĠĠĠĠĠĠĠ ĠĠĠĠĠĠĠĠĠĠĠĠĠĠĠĠĠĠĠĠĠĠĠĠĠĠĠĠĠĠĠĠĠĠĠĠĠĠĠĠĠĠĠĠĠĠĠĠĠĠĠĠĠĠĠĠĠĠĠĠĠĠĠĠĠĠĠĠĠĠĠĠĠĠĠĠĠĠĠĠĠĠĠĠĠĠĠĠĠĠĠĠĠĠĠĠĠĠĠĠĠĠĠĠĠĠĠĠĠĠĠĠĠĠĠĠĠĠĠĠĠĠĠĠĠĠĠĠĠĠĠĠĠĠĠĠĠĠĠĠĠĠĠĠĠĠĠĠĠĠĠĠĠĠĠĠĠĠĠĠĠĠĠĠĠĠĠĠĠĠĠĠĠĠĠĠĠĠĠĠĠĠĠĠĠĠĠĠĠĠĠĠĠĠĠĠĠĠĠĠĠĠĠĠĠĠĠĠĠĠĠĠĠĠĠĠĠĠĠĠĠĠĠĠĠĠĠĠĠĠĠĠĠĠĠĠĠĠĠĠĠĠĠĠĠĠĠĠĠĠĠĠĠĠĠĠ
ĠMit chell
r ative
st ick
Ġcost ly
OU NT
ÐµÐ ³
Ġdiff ers
ĠPitt s
ĠV ari
ĠL ock
Ġfib rosis
Ġwh ites
Ġpal m
Ġproced ural
Ġfort une
ĠMur ray
In ternal
ĠB ag
Pl ayer
Ġtremend ous
ĠPe ace
Ġg az
ĠRe lease
ĠGerm ans
ĠRem ove
æĸ ¹
Â ĺ
D ouble
Ġf ist
Ġput ative
e ve
. *,
èĢ ħ
ĠH F
m or
ĠF E
Ġste al
Ġk er
Ġp ant
Ġv end
oc ur
Ġthe atre
Ġblock chain
Ġundert aken
Ġl oci
çĶ Ł
up on
C AP
Ġdemonstr ation
Ġ15 5
ctic ut
é Ľ
Ġuncomfort able
Ġtrad em
en vironment
Ġr ust
Ġdepart ments
ĠB rew
ab olic
es c
ĠAg ric
Ġscr atch
I H
ver ter
uck ed
Ġsort ed
Ġac res
ĠV in
Ġ2 10
ĠAct ive
act in
Ġwr ist
Ġt ire
Pro gram
Â ļ
ĠF al
Ġper o
Ġlink ing
ĠT ogether
Ġanal ytic
ĠL D
Ġstret ched
H ub
Ġtr aged
, *
ĠD ub
Ġw aiver
In f
Ġampl ified
ĠH end
17 8
Ġp ension
L T
Ġst oring
ose velt
Ġsac red
Ġsign atures
Ġsubset s
ĠÃ §
Ġcred its
iz oph
ĠT ar
ot ive
W atch
33 3
u pload
Ġsl aves
19 77
Ġlong est
less sim
Ġob ey
ĠD W
Ġes cal
Ġd ps
w hether
âĢ¦ ]
Ġens ures
Ġcon cludes
Ġb rick
trans lation
ars on
Ġfail ures
ĊĠĠĠĠĠĠĠĠĠĠĠĠĠĠĠĠ ĠĠĠĠĠĠĠĠĠĠĠĠ
ĠPUR POSE
call back
Ġ17 5
ĠS ac
Ġlib ert
P rior
c ible
Ġpat ri
est one
ĠProte in
æ³ ķ
Ġinterview ed
ĠT ru
og ra
Ġsevent h
Ġantioxid ant
det ail
ĠC av
Ġdescript ions
z h
Ġre habilitation
Ġref ract
Ġimp ed
Ġshall ow
O k
Ġfore going
g overnment
or ia
Ġlog s
c reat
M aster
Ġd ash
Ġx en
amm ad
ex isting
Ġanx ious
Ġr ated
ĠI bid
Ġd are
Ġcha os
Ġact in
AD DR
ĠMarg aret
ĠColl ins
Ġpolym ers
ĠDe velop
ore ct
ĠÃ¼ ber
0 35
ĠJ O
arc in
p arser
Ġs ans
Ġ4 50
Ġalgebra ic
rocy tes
ĠOr leans
ĠF M
ne ys
Ġpsych ology
ĠCamp bell
ĠJim my
ĠV A
ĠL IM
N ormal
k w
Ġis omorphism
ĠĠĠĠĠĠĠĠĠĠĠĠĠĠĠĠĠĠĠĠĠĠĠĠĠĠĠĠĠĠĠĠĠĠĠĠĠĠĠĠĠĠĠĠĠĠĠĠĠĠĠĠĠĠĠĠĠĠĠĠĠĠĠĠĠĠĠĠĠĠĠĠĠĠĠĠĠĠĠĠĠĠĠĠĠĠĠĠĠĠĠĠĠĠĠĠĠĠĠĠĠĠĠĠĠĠĠĠĠĠĠĠĠĠĠĠĠĠĠĠĠĠĠĠĠĠĠĠ ĠĠĠĠĠĠĠĠĠĠĠĠĠĠĠĠĠĠĠĠĠĠĠĠĠĠĠĠĠĠĠĠĠĠĠĠĠĠĠĠĠĠĠĠĠĠĠĠĠĠĠĠĠĠĠĠĠĠĠĠĠĠĠĠ
Ġwe aken
un ion
Ġroll er
ĠTechn ologies
ĠY ears
ĠNe braska
Ġem erge
Ġconcept ual
cknow led
Ġmicro bial
Ġ 000
Ġche aper
Ġsur f
Ġaccount ed
Ġasympt otic
ĠVill age
Ġm ate
f ixed
ĠHun ter
al gebra
uss i
Ġpath ogen
Ġwealth y
Ġell ipt
Ġsc aff
Ġsecre ts
[ *
J P
sing le
Ġd ots
UR I
ĠBr ig
bal ance
Ġspecim en
Ġpul ses
ook ie
3 12
Ġ19 62
Ġun h
23 4
Ġerr no
F oot
Ġtom ography
âĢĵâĢĵ âĢĵâĢĵ
Ġassess ments
39 5
id os
Ġstr anger
Ġdel ays
Ġtempor arily
ĠR andom
ĠSus an
Ġeigen values
izoph ren
^ .
M ember
f an
Ġd end
Ġv est
Ġmusic ians
ĠSN P
ag ne
ĠBas ic
rown ed
ĠJ S
Â Ļ
r ays
hand ler
Ġcy ber
ac a
ç İ
ĠChristian ity
Ġrun time
Ġz a
âķ Ĳ
e fficient
Ġrecip es
Ġunc ert
ĠCom merce
ĠP P
Ġexpress ly
Ġh iring
ask et
ĠP ad
Ã© l
27 0
un i
Ġhier arch
akespe are
Ġrif le
alth ough
j ax
Ġ ##
at ers
Ġinher ited
Aug ust
Ġinj unction
ĠOr th
Ġh unt
18 6
Ġsi RNA
ĠH CC
( !
Ġtr aces
Ġprint f
Ġproblem atic
Ġper pendicular
Ġcast ing
Ġfet ch
Ġport al
ä¼ ļ
v t
on o
Ġlif ting
c ounter
æ Ľ
è ĥ½
ĠL l
ĠA th
ot ics
ĠIs a
Ġadoles cents
W O
Com mun
Ġc ute
Ġlack ed
Ġsatisf actory
32 7
ĠBl og
Rear range
Ġdress ing
ant es
Ġbatt les
j av
l ord
ig inally
ĠH M
ĠMag azine
out ing
ĠM ach
Ġproceed ed
Ġwhere ver
c ou
Ġb ib
Ġcomm od
ĠEnvironment al
Be an
GB T
Ġsyn c
Ġal g
Ġbott les
Ġ% >
ik h
Ġn iet
Ġserv ants
ä¸ º
ot ides
eb ook
Comp ile
D irectory
ir q
ococ cus
17 2
Ġcont empt
Â ¨
ra ham
ist rate
ary n
An n
.. ...
ĠNor way
Ġpack ets
Ġw ires
ĠF ern
å Ĵ
Ġprem ature
l m
log in
Pres ident
IP T
Ġpow ered
ĠA w
ãĤ ¿
aint ed
pre ced
Sec urity
L ow
ĠT ob
Sc ale
22 3
ĠP od
Ġattack ing
em eter
ĠSt atus
Ġl ingu
Ð°Ð ¿
ios ity
Ġintra ven
ĠFed eration
Ġphot ons
PR O
Ġuns afe
38 6
Ġb anned
Ġearn ings
ph ab
ys call
ĠS cript
Ġpre cursor
ĊĠĠĠĠĠĠĠĠĠĠĠĠĠĠĠĠ ĠĠĠĠĠĠĠĠĠĠ
ac iones
section al
ĠPARTIC ULAR
Ġrest oration
Ġad ren
CHANT ABILITY
Ġacc us
osc opy
ĠNe ed
Ġc md
Ġsoc cer
Ġnut s
Ġhum or
be en
25 9
ĠGENER ATED
" `
Ġdis reg
Ġhydro ly
ĠSe ven
yl um
d h
Ġper f
Ġsub scrib
S ir
arg o
Ġcompar ative
Ġelim ination
sh a
ÐµÐ ·
P od
Ġpat ches
ĠA CC
op a
m any
_{ {
Ġtechn ological
Ġuncert ainties
gener ated
Ġappropri ately
ĠDat abase
ï ½
Ġins ult
ĠP ic
d ensity
ĠĠĠ ĊĠ
ertain ly
ĠK ate
math it
Ġdest ro
P ower
es pecially
Ġir r
Ġ č
Ġbe ams
ĠVAL UES
Ġrele asing
25 2
Pol icy
um m
Ġtor que
Ġv il
J uly
ine a
Ġph on
Ġsuper vision
D ITION
ace ae
g z
27 5
Ġour s
Ġperturb ation
Ġact ress
Ġmin istry
P arser
Ġev id
Ġinf usion
Ġz inc
J ob
ĠRes erve
ĠR C
Ġdesign ing
Ġett Ã¤
Ġpros per
chem ical
ĠB O
ĠH ER
Ġbright ness
ĠD ak
Ġt anks
ick en
she et
ĠN ut
Ġasc ending
Â Ŀ
la unch
Ġscript s
iterr anean
ass y
S cal
] $.
Ġcur sor
ĠN T
ĠI RS
ĠÂ§ Â§
Ġconfig ure
23 9
ĠÐ² Ñĭ
à¤ ¿
Ġworld s
oglob in
ĠO H
ru gged
Ġn ested
Ġb or
ĠF er
at ible
ĠArab ia
} >
Ġstart up
Ġquestion ing
st ation
Ġcomment ed
Ġ2 30
Ġd s
Ġcoll ateral
ĠQue ens
Ðµ Ñģ
Ġhonest ly
ĠP or
ed itor
Ġsex ually
the se
ĠG B
00 20
à¸² à¸
Ag ain
Ġmi RNA
H g
24 8
ercul osis
gl uc
Ġprim itive
ĠFIT NESS
ST ART
ĠCrim inal
re ported
st eps
prote in
ĠMem bers
ok a
az ines
ĠIran ian
Ġbed s
oster one
Rel ated
ac re
Ġdis g
ĠUn til
Ġch unk
Ġfoot age
Ġinfra red
tt es
Ġstrength s
Ġlumin osity
Ġhead ers
~ .
file ID
Ġunemploy ment
ãģ¦ãģĦ ãĤĭ
j ury
Ġprob abilities
Ġpro jections
ĠO liver
Ġp upp
th s
ç ´
Ġn ort
p atch
Ġsub unit
li ography
CT RL
Ġg riev
ĠAltern atively
Ġsc andal
Ġcompet ent
ĠK ings
B inding
Ġt ilt
0 34
Ġhabit at
Å ¥
Ġorgan iz
ĠFre edom
ĠCol onel
Inst ead
ĠCra ig
Ġlast ed
ĠGr ad
ĠS ent
Ġplan ets
Ġdownload ed
t m
ãĤ ģ
Ġhere by
Ġsh adows
Â ĭ
Ġprompt ed
Ġh r
ĠL P
Ġto do
ik o
ĠD est
act ing
ast ically
Ġt in
ĠCont ract
O ld
ĠEx amples
Ġch ron
row ave
f mt
ãģ ©
N Y
Ġas ync
Ġgrand mother
L ibrary
Ġcor rid
ĠF at
ĠT ower
40 4
con sum
ĠT s
ĠJ oy
t ub
é Ĺ
v ari
Ġfold ed
fun ctions
Ġcontrad iction
Ġover look
è¿ Ļ
Ġcatal og
Ġinv isible
an ed
ĠK an
ĠN ash
ĠSam uel
Ġ[ $\
u art
cer n
Ġda wn
Ġb p
Ġsusp icious
ĠN am
Ġf riction
Ġsupern at
Ġdis ruption
Ġdead line
p her
Ġn em
Ġcryst als
M il
sh adow
sc hem
CL A
å İ
Ġv om
man ager
Ð¸ ÑĢ
Ġbelong ed
Ġappe aled
ĠU P
Ġeleg ant
Fr ank
enez uel
ur ry
Ġhe al
ĠO wn
hat tan
Ġsl iding
am el
ĠH C
16 1
Ġtem plates
inc ome
Ġneighbor ing
tr ace
) }_{
Ġinter pol
F low
ĠL ower
Ġsp otted
Ġhal o
qu ito
ĠPre vious
um ab
L ar
=" "
40 5
ĠLar ry
Ġup grad
ring e
Rep ort
Ġatt ain
19 70
Ġscient ist
Îº B
Ġcorp us
ĠC over
ãģ ¤
plic it
ul ose
22 8
ĠM IT
With out
Ġun reasonable
Ġbeat en
ĠH us
18 2
Ġeconom ics
ĠPublic ation
osex ual
mem ory
Ġbond ing
Ġcoal ition
m art
end ent
ĠE dd
ĠSh ang
Ġant it
EN C
e ctions
Ġyield ed
ĠF ast
Ġun treated
am ation
ĠMem orial
anc ouver
ä¸ ĭ
Ġw inners
U B
J e
Ġprepar ations
Ġc ass
web kit
ĠLear ning
ophag y
Å Ħ
Ġpol ÃŃ
Ġpost er
ĠC X
pr ising
ĠDen ver
22 1
ĠDemocr at
Ġterm inals
ĠP AR
Ġil leg
Ġc ensus
Ġdiscrim in
aj ax
R X
;\ ;\
ĠP ick
Ġintr ig
Ġvis cos
ĠE sc
c atal
G a
icro bial
m ag
ĠC AN
ĠC old
ct omy
AR CH
ĠTurn er
CLUD ING
Ġal umni
empt yset
ues e
Ġro pe
ĠT her
Ġobserv ing
Ġalleg es
ĠQ uality
Ġ! ==
E st
AB A
× ľ
ail ability
ĠSub ject
g b
oc cup
View Controller
ãģ§ ãģĻ
30 8
19 75
chan ical
Time out
Ġk Ã¶
---| ---
Ġhom eless
Ġw are
22 7
Ġg le
un ge
Ġin ert
em os
pa per
Ġconduct ivity
ter min
Ġconst rained
S at
Ġ$ ,
Ġo un
ĠV M
Ġpig s
ĠK ir
g ement
Ġorig ins
Ġexhaust ed
Ġinflu ential
Ġun related
( :
S ometimes
ĠD S
Ġpurs uit
b matrix
Un fortunately
g ium
0 50
pect ives
rypt ed
ĠMult iple
ĠTra vel
ĠØ ª
Ġfl ights
ĠT rial
Ġport folio
Ġaccum ulated
Ġg orge
Ġout s
Ġsche ma
Ġ14 7
0 37
ç ľ
Ġaggreg ation
ĠAl aska
Ġmi RNAs
Ġb ree
Ġwa fer
å ĵ
pt ive
Ġviol ate
el ian
ass ium
Sche ma
ĠJust in
ĠP ast
Ġrecip ients
Stand ard
Ġisol ate
l ip
Ġt ended
Ġk o
Ġske letal
Ġvolunte er
Ġexhib ition
Ġsu do
ĠCon fig
le v
ĠÎ ¸
Ġmist aken
æĸ ĩ
Ġtrop ical
gen e
Ġpaint ings
ĠP rivate
ĠEqu ation
sl ash
Ġsys call
ĠMER CHANTABILITY
Ġinstall ing
Down load
leq slant
em e
% "}
SE C
Ġtransport ed
] +
N UM
Ġabs urd
Ġclass room
d ie
Ġrespons ive
ĠN an
ig g
= [
Ġm Ã¥
we ak
ĠD anny
** ).
ĠMil itary
lot te
Ġ( {\
r Ã©
ah oo
Ġd ell
Ġ` `
ent a
cl inical
Ġlog ging
pro to
18 1
Ġbiomark ers
ss on
ĠM aterials
onom ous
St orage
ĠComp ared
Ġgl obe
Ġsper m
ĠC ape
AT T
Ġr ushed
f actory
o ard
ĠD ream
Ġpric ing
ĠInd ependent
m eth
Ġcon ceived
30 3
Ġfun eral
immun e
ic ol
res olved
ĠÂ ©
Un known
Ġc tx
29 1
ĠStan ley
], \
ĠG y
Ġd f
id ency
ĠE val
ĠPl ayer
ĠSh are
ĠB enn
s z
Î ¾
à¸ Ń
Ġinte gers
oper ation
Ġphot ography
ut a
Ġdec is
Ġ_ {\
F W
Ġwarn ings
Ġatt enu
Ġa rose
ell ers
Ġsuccess ive
Ġsc ans
Ġarriv ing
Ġmach inery
ro e
Ġpotato es
ĠG ate
Ġto y
60 5
ĠD ES
ĠPort land
ah u
ĠAll iance
ìĿ ´
Ġth ir
it ably
Ġju venile
ex e
Further more
Ġab st
arc ia
Ġneurolog ical
C opyright
ev ents
ĠGal axy
Ġm ast
ok ers
ĠConne cticut
return s
Ġformer ly
cut aneous
}$ ]{}
Ġle v
)) **
ps ych
Ġgrad uated
P LE
Ġsu a
ke eper
Ġview ers
Ġem pire
cont ract
ĠPrim ary
bu ilt
D en
23 7
Ġcompass ion
Ġg rief
Ġswit ches
Ġ14 8
Ġfasc inating
Ġsurge on
Ġf ighters
math op
Ã± o
ĠPro f
bel ie
ĠE instein
Ġve c
r untime
Ġcomplet ing
Ġur gent
M atch
ĠK o
Ġsimpl ified
Ġdepend encies
Ġcomp ressed
com pl
res pect
ud ed
Ġpurch asing
e cess
Ġinterrupt ed
Ġev ac
Pl ay
Ġmur dered
Ġde pletion
Ġh ated
Ġ ĊĠĠĠĠĠĠĠĠĠĠĠ
Ġgener ators
xim ately
Î½ Î¿
Ġpolymer ase
Ð°Ð ±
Ð¸ÑĤ ÑĮ
Ġconstruct s
ig ating
Ġrot ate
ĠBl oom
iment o
Ġduplic ate
ett i
Ġcrit ically
Ġplate let
it os
Ġtact ics
Ġdil uted
Ġ15 7
Ġdes ires
04 3
ĠN um
Ġagric ulture
ĠD og
qu ote
ĠW ait
Ġann ually
de rer
ì Ĺ
Ġ19 61
Ġmor bidity
Cont act
Ġirrad iation
Ġres ume
Ġp ound
ner g
res olution
× ¨
ch ief
Ġkid n
Ġj aw
Ġsyn aptic
ĠÅŁ i
Ġreprodu ction
g ender
Ä Ģ
he a
organ isms
orect al
ĠIn ternal
Ġass isted
Ġwe aker
ĠR R
Ġco ins
ĠÃ ¡
Ġrevers al
Ġf mt
W ar
Ġ' <
Ġrecom b
orient ed
Ġc aut
d L
ĠMar ie
amm ar
Ġfree ze
W ed
18 3
C ity
u ates
34 9
W elcome
Ġimp ress
Ġd ess
es ch
ri z
Ġarch ae
ĠB D
t frac
urb an
Ġwh olly
ĠFl u
work ing
ĠRead ing
ION S
Ġpod cast
b ons
ĠSuper ior
Ġapp ellee
Ġsk i
Ġc ob
Ġsix ty
Ġimport ed
qu et
Ġf Ã¶
ĊĊ ĠĠĠĠĠĠĠĠ
ç ¤
ĠJer ry
ĠT el
Ġred irect
F loat
Ġl inux
h arm
ĠK han
S equ
ĠAnd y
Ġpal ace
ier ra
Ġserv ant
Ġadhes ive
Ġbas ement
Ġp c
ocl onal
ĠK arl
Ġt elesc
Ġdel icate
ĠC AP
Ġappell ants
Ġflu ids
igh s
Ġr het
ĠÐ Ł
Ġgl and
iz on
24 4
Ġrem od
17 3
Ġj ar
Ġwitness ed
um at
ĠAr n
SS L
ĠLar ge
of lu
Ġ} {
ĠB ios
}) ^
Ġbe ads
å ĭ
C reat
Ġre gex
In formation
ÂłÂłÂłÂłÂłÂłÂłÂł ÂłÂłÂłÂłÂłÂłÂłÂł
Ġbuild s
Ġdown ward
Ġor che
ĠE lectric
ĠF DA
M ill
ĠK am
Ġp ine
ut ors
enc il
ĠG onz
h ide
ĠR ES
Ġdest ruct
Ġey eb
Ġconsult ation
Ġelabor ate
im als
Ġown s
Ġe u
Ġtradition s
Ġbra ve
ĠP arent
Ġtr an
c ad
ĠSing h
Ġc f
Ġfor k
st ates
2 13
Ġst ressed
Ġharass ment
ol ytic
ar med
ke ley
AT CH
Ã¤ tt
Ġgentle man
om i
Ġtort ure
ĠA x
Ġmunicip al
Ġerrone ous
Ġred shift
os itory
Ġab rupt
Stat istical
ag ents
ak t
ĠV erm
ĠV R
ĠNaz i
Ġtal ented
os i
an ine
Ġlike wise
ĠQu est
/ #
Y Y
ÏĦ Î¹
e ing
Ġend point
Ġre per
ĠP le
èĩ ª
Ġre nd
ost ics
ĠJe rem
ĠIt em
* ^*
Ġgen otypes
t z
ĠChair man
Ð°Ð ¹
Ġgen ius
Ã¤ h
Ġcont end
Ġsl avery
ĠSt adium
IL D
Ġv ague
ĠBrook lyn
Ġattend ance
Ġinhabit ants
ĠO NE
Ġfl ame
ne a
Ġi i
Ġam mon
Ġtransform ations
F rench
Ġl ighter
Char acter
ĠM ail
Ġsoci eties
ĠP il
pr ises
ĠAl ber
Ġclimb ing
Ġall a
Ġvacc ines
ra is
Ġpreval ent
PL C
t reatment
LO G
0 45
ä½ ľ
F amily
ĠR ange
Ġa ston
B G
c ity
Ġunder neath
Ġz oom
à §
F Par
d irection
Ġre he
b lic
' "
p he
Ġsh ade
Ġpr one
* ).
Ġph p
ent ity
Ġdiox ide
ai res
ab ul
ĠP G
pro c
Ġ14 9
ĠF ellow
Ġdiag rams
ĠG PS
Âł Ċ
ĠSt op
ill us
ĠPl ant
Ġs ind
Rober t
ur ious
Ġperman ently
ĠUnivers al
Ġemerg ence
ĠI BM
ick et
} &
26 5
ĠA CT
Ġbeh ave
ation ally
++ ++
ãģ Ĭ
Ġconstru ed
Ġun ions
ĠR AM
ĠA uth
Ġfore sts
R a
d an
ĠInd ividual
acer b
Ġfr ank
Pr ice
Ġcl erk
Ġphosph at
ĠĠĠĠĠĠĠĠĠĠĠĠĠĠĠĠĠĠĠĠĠĠĠĠĠĠĠĠĠĠĠĠ ĠĠĠĠĠĠĠĠĠĠĠĠĠĠĠĠĠĠĠ
Ġconsum ing
man if
Ġorgan ism
28 8
ch art
More over
qu o
Ġoverse as
22 6
ĠIN C
ill ery
0 36
Ġglob ally
ard less
2 15
ĠC iv
Ġdr ill
Ġdraw s
S ERV
Ġdec ree
reg n
23 6
OU P
Ġal gebras
24 9
ul u
re b
Ġconcent rate
è ¾
Ġhepat itis
à µ
ĠUn iverse
en eration
$- $
Ġp ockets
âĢĿ ).
ov ation
Ġsig hed
- [
ac ional
not es
23 8
Ġg ases
v Ã¤
F ire
: [
Ġint imate
ur u
ĠR ab
ĠN ormal
Ð¸ÑĤ Ðµ
Ġir re
P rop
pro ps
" ],
Ġval ued
au f
Ïģ Î¹
To String
Ġquadr atic
32 4
ĠR ain
sub mit
id as
ar ma
Ġpl ed
Ġl ately
it atively
ĠW ol
Ġste ering
st ru
N ative
Ġcons ume
Ġpat ents
overs et
l ov
Ġd umb
Ġconv incing
get Element
X i
w ear
Ġmorph ological
E r
Ġlymph ocytes
Ġcounterpart s
ç Ĳ
prim ary
Ġadvoc ate
Ġinhib its
Ġbel oved
Ġtrans c
d og
Ġarch ive
ĠG E
> ;
ost a
Ġà¤ ķ
Ġur ge
Ġhy d
Ġveget able
Ġchlor ide
ĠChar lotte
Ġtrans genic
Ġhot els
Ġcolon ial
pol ymers
Ġwell s
ĠBr and
Ġ14 3
ĠB ou
ãģ£ ãģ¦
f x
Ġdef ending
Ġbroad ly
25 1
Ġpert inent
Ġform ats
se ctions
Ġref using
reduc ible
Let t
åĴ Į
PE G
Ġp icks
ĠCle arly
raint s
Ġst amp
Ġmet adata
ëĭ ¤
U X
Ġnec rosis
Ġmiss ions
ÂłÂł Âł
pa id
Ġmult ivariate
Ġst unning
Ġlabel ing
Ġimper ial
Ðº Ð°
ĠH old
Ġch i
ï ¿½
ãģĭ ãĤī
id in
Ġoverl apping
ĠEth ics
ĠS port
Sm ith
ĠRespond ent
Ġf n
Ġtoile t
Ġdistinct ive
alk ing
Ġfe ared
ĠOr ange
Ġdev iations
ak u
ffect ed
Ġfore ach
Ġembed ding
and id
itt i
Ġfl ank
in qu
Ġb ust
ĠH S
ĠS ET
Ġt at
p ages
ĠCommun ications
Ġgrand father
ĠR oll
Ġe ch
Ġtr ucks
âī ¥
Ġs ql
Ġst a
Ġl over
Ġcomp os
Î¼ g
Ġfre ed
Ġart istic
ĠRo osevelt
Ġvic inity
ĠRub y
Ġsp ac
ĠR ud
ĠB eng
ĠT aking
Ġt am
ÐµÐ½ ÑĤ
t ake
k r
Ġanim ated
v art
ina fter
Ġtradition ally
ĠÑ Ħ
Ġlog istic
ĠL en
ÐµÐ ²
ĠAg ent
Ġnormal ization
Ġde i
Ġplaus ible
check ed
Ġmet ap
Ġsy st
Ġunlaw ful
Ġintent ions
Ġdeliber ately
Ġsurv iving
- .
Ġreb uild
ar lier
met adata
25 7
Ġv oy
æ ĥ
Ph il
ric ks
Ġinv itation
sc ience
ĠT reat
ĠD iscussion
att en
Dat abase
Ġery th
Ġpredict ing
Ġ4 04
Ġsle pt
em p
H om
ĠK night
ĠWat son
ĠJ a
r ator
v ae
ĠT LR
ur ia
ĠMag ic
ĠDown load
Ġ15 3
ail and
ĠU E
Ġqu as
Ġch airs
dra wn
ĠM achine
Ġha pl
ĠJ uan
ĠN D
AG ES
b rain
ĠJ ob
c op
Ġde bris
ĠCom par
Sim ple
down load
oun ty
N ER
exec ute
Ġmis conduct
p ent
Ð¸ Ñħ
Ġ15 4
Ġneut ron
Rem ove
Ġen er
Ġcompet itors
z el
ĠMed iterranean
: /
M sg
Ġcert ification
Ġh ood
Ġcar riage
ĠÐ Ĵ
b usiness
ist ration
ĠArk ansas
l g
i ota
Ġcelebr ation
it Ãł
Ġmet er
Ġlat ent
um ed
Ġtim er
}\ ,\
ĠCON FIG
Ġnew er
c mp
iz a
ĠPal ace
Ġadj ud
Ġpro to
Ġon ion
al one
s ocial
ĠT erry
du cer
Ġ14 6
Ġpre st
R U
Ġconf using
am eters
30 7
Ġri vers
ĠC zech
Ġm ell
Ġf als
Ġw ie
Ġ erg
Ġquant ification
Ġmag ical
Ġpresent ly
=\ "
Ġselect ively
Ġexperiment ally
sh ore
Ass ert
Ġmus h
ĠMad ison
ug gest
L ab
ĠM aur
ĠC hel
ĠPart icipants
OT O
Ġhost ile
Ġ14 2
Ġ$ _
x ff
ĠCent ury
Ġdifferent ially
Ġident ifier
d ag
opt ional
× Ĳ
process ing
Ġsmart phone
ra ctions
Ġo wing
Ġfor ma
å ¦
Ġass ure
Ġl ent
NA L
) ]{}
ĠMem ory
ch air
Ġben ign
Det ails
Ġlast ing
Ġc is
del im
ĠHel p
ĠStud ents
al ph
Ġanth rop
Ġhem orrh
ç µ
ul ic
Ġaccel erated
Ġag ar
r il
bas ic
ĠH ills
M rs
ĠL L
ĠH ep
ĠCl ay
Ġst adium
_ :
ĠMA X
/ )
Ð Ł
port ion
ortun ate
idel ity
Ġindirect ly
ra k
Ġra z
ĠCh rome
**************************************************************** ********
y cle
Ġcle avage
ĠEm ail
D am
al is
Ġsub scription
Ġsch izophren
Ġcivil ian
Ġ19 0
h aw
æĢ §
ar an
Ġpe ers
ĠLic ensed
Ġfaith ful
ĠLib eral
ĠPat ri
ĠMur phy
Ġcarb oh
ri pp
Ġmamm alian
Ġcont ing
Ġfix ation
F inal
Ġ16 8
E lect
Ġsens it
ubl in
erv ation
ĠAust ria
Ġpurch ases
ill ation
O ffic
Ġ( +
Ġs ang
Ġdetect able
> "
Ġtok ens
Ã¡ l
Ġd ementia
Ġtre asure
Ġver bal
L OC
y ll
Ġsens es
res a
................ ................
F N
St ruct
s ided
Ġrout inely
ĠR d
ey er
ĠS DS
ĠGall ery
Ġatt raction
Ġdraw ings
Ġarth ritis
Ġin duct
Ġpolynom ials
B ur
~ /
Ġ15 2
Ġmand ate
ĠHigh way
ĠB ah
Ġregul ators
Ġs or
Ġharvest ed
P IN
Ġpre y
, %
Ã¸ r
ros ine
ĠAdv anced
Ġa h
ac ry
ĠMan hattan
Ġincl ined
ĠPri ze
ĠB ert
ag onal
ĠG ov
Ġ15 6
th ose
ĠPho enix
Ġ[ (
Ġmid night
ĠNot es
Ġcount ies
Ġt ak
Ġcontin uity
Ġfart her
Ġl ined
ĠMel bourne
Ġviscos ity
Ġpat rol
plic ate
Sing le
Ġiniti atives
Â ı
Ġcl ones
ĠL ICENSE
Ġant is
] $,
il ia
res ources
D isc
ĠTra il
Ġimag inary
Ġcycl ing
e clipse
ĠWh atever
| {\
lem ma
Ġcondition ing
AT TR
Ġprot otype
Ġadd itive
Ġpu zz
Ġa le
t rial
Ġ\ !
ĠS ERV
d ue
ĠC OL
Ġgest ure
PS S
Ġearth qu
Ġwork place
Ġpun ish
Ġco aching
ĠPer formance
plement ation
Ġdiff use
Sept ember
ĠC ant
Ġped est
W M
Ġclim bed
Ġsing les
ĠM Hz
2 14
Ġhe d
Ġr ay
ĠP ain
ferent ial
Ġth ym
ĠPer ry
Des criptor
32 3
ore nt
Ġbre ed
establ ished
i Ã©n
ric ane
p oon
fl ix
ĠS ay
icular ly
Ġmerg ed
Ġgen omes
Ġ14 1
Ð¸ Ð·
rec ogn
65 9
ĠO FF
Ġext inction
W il
ĠA SS
ĠV a
Ġpred ecess
Ġg aining
ĠPa per
Ġ ĊĠĠ
Ġobserv ational
Ġcoll apsed
EL D
ĠGet ty
Ġphen otypes
Ġher itage
ĠE SP
ut ral
ĠAct ivity
âķĲ âķĲ
Ġaf fection
ĠGener ally
Mem ory
Ġrock et
ĠAl t
Rem ember
Ġob jections
Ġtrans fers
Ġcommerc ially
ãĤ Ħ
ĠWork ing
__ (
phant om
serv ices
Ġel le
ĠMad rid
ĠP ant
E NA
Ġpl ac
ĠK on
ozyg ous
Ġ19 44
Ø Ń
ĠF D
Ġ_ __
sequ ence
Ġseiz ure
Ġdec ides
print s
Ġ[ âĢ¦]
Ġb ark
0 21
pers onal
Ġsent iment
re ach
ç Ĥ
opl astic
ĠC BS
Ġemphas ized
Ġsum mit
pe g
W orks
Ġex acerb
Ġpar ks
Ġlog ar
ĠAb d
an cer
D ifferent
Ġben z
K ing
ocr ine
ĠLa ura
Ġso ap
Par se
Ġbov ine
Ã¤ Ã¤n
ĠSo on
) >
Ġob ese
Ġroll s
Ġm Ãªme
vol ume
k om
C enter
Ġexpect s
Ġg er
ĠAl b
Ġfar ms
Ġeditor ial
ĠStat ement
ĠG ot
4 80
č ĊĠĠĠĠĠĠĠĠĠĠĠĠĠĠĠĠĠĠĠ
Ġ15 1
Ġ iv
ĠM all
Ġcou ch
Ġp oured
ĠN ag
ĠM erc
Ġnutrition al
Ġ2 12
æĪ Ĳ
oth s
ure us
ĠTo o
ĠS ad
H F
lic ense
æ µ
Ġver ification
30 9
- {\
#### #
Ġtraff icking
Ġ\* \*
m are
ĠCon stant
Ġswe pt
ĠInte ger
m il
äº ĭ
32 9
ĠD AM
Ġrad ar
Ġfr ustration
Â į
Ġdisse min
ur an
Ġatmosp heric
est ine
Ġdem o
am ate
Ġconver ting
ĠCR C
ĠSh akespeare
M aterials
AN Y
label ed
u ance
25 8
Ġbar red
ĠYOU R
Supp ort
P AGE
hy d
te am
Bl ue
ĠN HL
Ġ20 2
ĠT A
Ġge omet
param eters
ĠA str
Ġret inal
åĪ °
cont act
with standing
L M
Ġquant ify
ĠâĢĵ ,
FR OM
ĠS B
R o
ov an
ĠNe uro
est o
Ġlig ands
ĠCond ition
) },
Ġexplo it
os ine
e ren
19 74
Ġener get
ink le
Ġexp ose
Ġrese mb
25 3
CR IPT
plit udes
ce iver
bre aking
Ġgr im
Ġinv oke
Ġbu ilder
ĠPhilipp ines
t ip
Ġlect ure
ĠI ce
Ð°Ð ¶
Ġobst ruction
Ġlock ing
Ġh ij
Ġr im
w i
ĠHawai i
Ġcon ception
Ġprospect s
A ld
head s
Ġrot ational
Ãª ncia
\ }\
W ord
Ġtaxp ayer
Ġrel iance
F un
T or
E p
Tr ace
iz ens
Ġsw ap
ativ istic
Ġadd iction
pin ion
Ġsub groups
ĠRes ource
Ġtrans parency
ex ternal
Ġp arser
z heimer
Ġretriev ed
Ġweak ly
P ackage
ĠZ hang
Ġapp et
Ġmitochond ria
Oct ober
Ġstat s
ĠPitts burgh
emeter y
Ġ2 80
cho ice
Ġapplic ant
hand ed
i Ã³
ĠV ancouver
comp onents
Ġre lying
Ġveter ans
32 8
are ttes
Ġpe oples
Ġc age
Ġopen ly
Ġsens ation
Ġjoint s
p nt
ĠA my
Ġhand les
00 15
b x
Ġbelie ving
à¤ Ĥ
Ġdev il
Ġout rage
Ġ2 60
Pass word
if acts
Ġbo il
å ł
is ode
ĠH ist
in is
roph ys
Ġsuper conduct
Aut o
build ing
-- >
Ġdr agon
ä½ ¿
Ġf ighter
ĠIN S
s am
u cc
ĠWay ne
Spec ial
Ġoff spring
tain ment
ĠB eth
Ġcont raction
Ġinvest ed
aud io
Ġr ack
con stant
Ġemphas ize
H am
ĠĠĠĠĠĠĠĠĠĠĠĠĠĠĠĠĠĠĠĠĠĠĠĠĠĠĠĠĠĠĠĠ ĠĠĠĠĠĠĠĠĠĠĠĠĠĠĠĠĠĠĠĠ
RE T
19 1
_{ {{\
cf g
Ġcur ric
E th
Ġtrib e
Ġsat uration
Ġeat en
23 3
ĠT an
IN VAL
Ñĥ ÑĤ
W hether
d ess
Ġ( ).
r ag
ĠRes ult
Jo in
ĠGr am
Ġrac ist
Ġparad igm
ĠChar l
ug s
sim ilar
g one
ĠChem ical
Ġbuck et
ÏĦ Î¹Îº
Ġpol ls
ich i
ĠW M
f ed
ĠC row
ĠEm peror
Ġstir ring
st orage
Select or
Ġdr ought
en ne
ĠFred er
(" %
ell en
mi R
ĠG un
Ġp ione
à¥ Ģ
HE AD
> )
T AG
g as
\ (
ek ing
ĠCON DITION
24 2
Ġscream ing
ĠA aron
hib ition
Ġcar box
Ġl od
Ġaw ake
Ġch in
Ġant igens
Ġp ou
Every thing
c rypt
Ġmel ting
Ġinfer red
Child ren
ens itivity
ĠVol ume
S creen
ĠW AS
Ġbuy ers
he id
ser ies
}} }_{
on omic
( @
c oding
Ġb oring
v irtual
Ġproport ions
Ġam bit
Cont in
oph age
ov irus
ĠAss ert
Ġdifferent iated
y on
ĠW ILL
Ġclean ed
29 5
Ġhero es
ĠH ash
Ġboy friend
S ocket
pro b
Ġadv ise
m aker
ah o
P rivate
ĠLET TER
Ġelectro ly
Mem bers
ĠV enezuel
An g
Ġdors al
} ),
Ġ15 8
ateg ories
j en
Ġcol ours
Ġansw ering
Ð Ĵ
Ġmarked ly
Ġbind s
Ġc Äĥ
Ġsuper vised
equ als
Ġst air
Ġcrow ded
ĠLike wise
ĠE state
w ire
ĠN BC
sw er
æ ²
ĠBar ack
R P
29 0
w hy
ĠÐ ¡
à¹ Ģ
re act
26 6
: -
am inated
re pt
Ġe j
Ġoptim ize
ĠR io
ĠBe aut
art ifact
unn umbered
ãģķ ãĤĮ
Ġr age
Ġsimpl est
Ġvol atile
Ġdefect ive
h istory
åī į
7 50
en abled
Ġte aches
Ġsp ouse
ron es
Ġtechn ically
Ġf lick
cre ated
ĠW ire
getElement ById
pre v
35 5
S ep
ĠR ot
ĠS ales
iem ann
ĠGr an
ĠM ix
he at
Ġcontext s
Ġcontract or
A z
pt o
G erman
s at
VAL UE
ĠCommun ist
ul i
w x
36 5
ĠF ix
ĠHig gs
M ON
ol ith
ĠSt ream
Ġw x
ĠM aine
![ **
ĠM ission
im mer
CL K
ĠDr agon
, [@
ĠCont act
br and
Ġref lex
ĠEX PECT
Ġsp iral
Ġcomment ary
à ±
r itten
Ġtr ash
Ġuncon scious
w y
Sc ott
Ġquarter back
ab ol
Ġdiv isions
Arg ument
ĠLie utenant
Ġdraft ed
32 6
Ġinsect s
ĠG it
Ġcrypt ocur
S PE
US A
ĠLim ited
N OS
os al
PR ESS
f m
iss ues
Ġde form
ĠPut in
ĠM oney
oc arcin
Ġref ined
th row
hem atic
M RI
Ġper sec
de ep
Ġdepos its
Ġpen alties
n Ã©
inter pret
Ċĉ Ċ
? !
ĠG H
Ġ19 42
k b
gen es
Jan uary
h over
te es
: '
N or
ĠNE W
Ġnorm s
stant ial
Ġcoast al
ev idence
gu ide
L uc
Ġimp art
Ġlit eral
ĠEgypt ian
ot omy
0 38
Ġuser name
Ġfo am
ch ant
Ġtouch down
A pi
Ġwh isk
ĠP ub
ĠPC I
ãĥ »
ĠMult i
Ġpat ience
phen yl
con sole
Ġsequ ential
ĠT ABLE
ĠM ason
ĠRog ers
down arrow
Ġno v
Ġneg lected
ĠTyp ically
Ġro de
Ġsal ad
ĠRob in
ĠDet ect
ĠT S
ai ro
Ġid i
ph ot
ĠOb viously
æ ı
Ġgly col
Ġex on
bl ank
Ġenh ancing
es ar
Ġcat ast
arch ive
l iter
ĠL ORD
uls ive
ĠF act
D est
ĠAdd ress
ĠV el
Ġpack ing
Ġstri ps
ĠY ES
40 8
Ġcop ied
itone al
Ġb olt
j j
ym an
rug s
Mult i
Ġgastro intestinal
ĠNorm an
fe ren
ĠFerm i
Ġpassion ate
+ -
Ġher s
sv g
ĠR s
A cknowled
Ġuniqu ely
Ġdesign ers
ĠIN TER
ĠK u
Ġse q
hydro gen
ĠHe at
Ġback s
ĠLe ban
ÐµÐ½ Ð¸Ðµ
ks i
ynam ics
ffff ffff
33 5
ĠÃ ĳ
** _
Ġch uck
Ġball ot
un ique
ra ise
G old
ism iss
Ġdisc our
T urn
st ats
Ġactiv ist
Fl ag
ĠD J
Ġp izza
ĠER R
Ġexceed ed
Ġimmun ohist
ĠMedic are
ĠT F
Ġ2 70
ull ivan
ĠGe V
34 4
Ġd ull
ãĤ ·
Ġscreen ed
ĠBern ard
Ġinter cept
/ ?
I K
ĠA pr
A rm
ĠTh read
lement al
Ġphilosoph ical
ĠT ib
Ġ19 48
ex ception
t al
ak y
, ...,
k ernel
Ġrep etition
Ġrevolution ary
ĠSher iff
add ed
Ġst ance
Load er
Ġlaugh ter
ĠEL ISA
Aust ral
Ġs Ã©
Ġenc ode
STAT US
Ġmag azines
Ġres il
j ah
Ġre actor
ĠK irk
ç ¨
Ġannot ation
Re ally
Ġfast est
Ġo wed
O wn
Ġworks hop
ĠA y
Î¼ m
i ang
abb ing
Ġgu ides
Ġmon oclonal
ine e
Ġc ath
Ġse am
Ġop io
ĊĠĠĠĠĠĠĠĠĠĠĠĠĠĠĠĠ ĠĠĠĠĠĠĠĠĠĠĠĠĠĠ
Ġmm ol
Ġfinanc ing
Sp ring
we gian
Ġt ant
Ġeth n
d ale
ĠP V
ĠPhys ical
ĠW or
Ġv ie
ĠL ip
@ @
Ġchar m
Ġw ax
}) }
Ġnerv es
empt ion
Ġe i
ps hire
ĠPhill ips
vo ice
Ġsimilar ities
l ive
ac ia
Ġcyt ometry
F und
ÐµÐ½ Ð¸Ñı
Ġc ough
Ġcur ved
ard on
Ġdifferent iate
Ġgar bage
ple ted
not ag
ĠCl a
Ġv ibration
\ **
Ġdet r
ĠQu ick
Ġsh rugged
Ġtime out
Ġpar ole
Over all
Ġenc aps
S eq
it ations
ĠS ony
ĠM MP
Ġs ender
Text ure
Ġident ifies
ff f
ub er
Ġam plitudes
L u
Ġmid st
ãĥ Ĺ
OUR CE
Ġfire arm
Ġla zy
p icture
ĠE ither
Ġsum s
ĠMar c
ĠHar per
Ġact u
preced ented
he ta
Ġlat ency
ĠR ing
Ġmon etary
con n
ĠCam eron
ĊĠĠĠĠĠĠĠĠĠĠĠĠĠĠĠĠĠĠĠĠĠĠĠĠĠĠĠĠĠĠĠĠ ĠĠĠĠĠĠĠĠĠĠĠ
Ġcon gression
The ir
ad itional
Ġfe ather
Â· Â·
Ġa ortic
ĠMe asure
Ġdet ention
ĠStan ford
Ð¿ ÑĢ
e or
Ġout ward
Ġau ction
ĠĠĠĠĠĠĠĠĠĠĠĠĠĠĠĠĠĠĠĠĠĠĠĠĠĠĠĠĠĠĠĠ ĠĠĠĠĠĠĠĠĠĠĠĠĠĠĠĠĠĠĠĠĠ
mut ex
Ġse pt
ĠP erm
Ð ¡
Ġpos ed
Ġ ðŁ
32 1
Ġrespect ed
ĠComm ons
Ġestablish ments
ref lect
Ġunde rest
ĠPu erto
19 73
ç «
Ġerrno Err
grad uate
Ð² Ð°
H uman
ĠApp ellee
ĠL isa
C ross
ĠRod rig
Ġtrav elling
um ar
Ġ---------------- ---
Ġacc ent
pred ict
Ġ19 41
Ġ19 56
ĠArch itect
ĠMathemat ics
) ",
ĠR oute
ath on
Ã¨ me
ĠSe an
h ours
Ġar Xiv
T OR
Ġun success
ia o
ĠCol lect
m icrosoft
N OW
m ight
ĠG T
' ];
Ġsp acing
ĠDebt or
W omen
b ag
ĠR achel
Cl oud
Ġm akers
Ġampl ifier
Ġ16 7
Ġ Ñı
Ġ19 39
Ġ" .
Ġ$ <
ĠNa Cl
Ġsin us
Ġ20 5
ĠC AR
Ġ2 45
Ġupd ating
Ġhar bor
ĠCh ile
Ġsh oe
ĠGu y
ĠHe aven
Ġd airy
Ġâ Ķ
Ġ16 1
ĠÂµ g
l iving
ĠSu ccess
Ġc her
Ġheter ogeneous
re ed
sa fe
Ġ15 9
Ġref res
ier a
vis ible
Ġen roll
Ġprint s
il age
ĠIS O
Ġtour ist
ĠM ORE
aj a
Ġresearc her
Ġreg eneration
Iter ator
ĠDen mark
De cember
ĠBel gium
Ġreal ization
ĠC arm
=" {
nav bar
Ġmos quito
Ġbench mark
ipl inary
Ġde ed
Ġcreat ivity
I r
Ġcl ue
Ġpresum ption
sc an
ĠCar lo
Ch ina
ĠSte vens
Ġjump ing
Ġsl id
Res ources
\ }$,
ĠR P
Con clusions
ĠLiver pool
ival ent
ĠJohn ny
athe tic
Ġjew el
Ġse ated
Ø ´
Ġep ile
Ġir reducible
Intern ational
27 6
ĠB B
Ġtraged y
ĠK el
Ġmiss ile
A IL
Ġ19 59
ĠBar ry
Ġshel f
ĠS r
Ġdes erves
fl at
Ġpret end
Ġins ulating
Brit ish
Ġ ....
th ood
Ġmelan oma
err ors
Ġut er
ĠLuc as
oubt edly
ĠF inn
Ġdist ortion
rel ations
ĠFl ash
Ġr ises
ĠBre xit
Ġf oster
ank a
X ml
Ġmeant ime
light s
ag ma
Ġfoss il
ig ator
as ters
Ġst ew
Ġ2 24
Ġthe sis
29 4
err al
sc roll
Ġjust ification
Ġcompat ibility
37 7
ĠF ra
Ġp are
; }
omy cin
ceed ings
c ott
Ġfa ire
Ġm ul
pol icy
---------------- -----
Ġl av
ri ber
ra h
Ġfract ures
Ġbe ast
Ġneglig ible
ĠÏĦ Î¿Ïħ
Ġl enses
se cret
ĠAss ume
Ġse cular
ĠH ero
ĠD H
ĠR isk
Ġsc arc
ĠB our
ien na
ĠLegisl ature
Ġsymm et
He ad
Ġbuy er
re rs
Ġdr illing
AC S
Ġspec ulation
ĠH CV
ĠB uy
ĠGuard ian
################ ################
D ie
Trans form
be y
Ġref resh
Ġce ase
Ġ9 00
Ġexplan ations
Ġsle eve
Ġfabric ation
den ly
26 8
Ġex cluding
Ġear ning
Ġdis ks
E B
Ġsubstant ive
ĠP F
Ġhome ost
ĠE ld
local host
Ġw t
t le
Ġident ities
Ġch iral
Ġ* ,
---------------- --
ĠB egin
H en
Ġbrow s
yr us
oot ing
blog ger
Ġ ?"
Ġspect acular
Ġ ĊĠĠĠĠĠ
ĠDi agn
Ġab err
d it
oll ar
Ġc d
Ġan te
Ġdrag ged
pl ings
Ġport rait
o ct
ĠEr n
C HECK
Ġmaxim ize
ĠCh a
Ġseason al
e ous
Ġepidem ic
ĠCom ment
ĠC rit
Ġoscill ations
for cing
Ġcoll isions
C ong
Ġad missible
ĠSc i
S IG
Ġloyal ty
annot ation
bre v
ash a
Ġs her
=\ {
Ġro ster
Ġ---------------- -
Ġfort un
Ġmicrosc opic
\! \
æĹ ¶
ĠFr an
Ġfore head
= {\
cess ion
Ġcle aring
2 18
B bb
ë Ĭ
H V
æ ¯
R F
re li
Ġinc ap
Ġrecomb ination
ne ed
Ġintention al
ĠE arl
ter ing
ater nal
Ġab oard
Ġcongression al
An alysis
ĠCONDITION S
ll er
Ġaddition ally
ĠSpring er
+ {\
Ġreserv es
ĠChampionship s
Ġref und
Ġrespect s
Ġharm onic
Ġher b
Ġline age
Ġf og
ĠPh D
ĠS PE
Ġsh am
Ġjud gments
SE M
J es
ĠS ave
Ġco res
Ġsp y
Ġre de
M el
ĠÃ ĺ
ond ers
Ġair way
28 5
ĠT es
Ġenthusi asm
Ġdimin ished
Ġpreserv ation
M er
Ġd well
ĠIm perial
Ġinstrument al
Ġtod os
Ġacc ret
im ir
o ft
Ñĥ Ð´
à¹ ī
Ġob struct
ĠHistor ic
ble ms
Ġdynam ically
ag les
Des ign
Ġcut off
n os
Ġsil k
ĠR V
ĠNev ada
ou x
Ġtrust ee
l inks
Add r
Ġt v
arcel ona
Ġe go
hentic ation
t ags
ĠN ord
ĠSams ung
M eta
Ġcare g
P red
Ġmathemat ics
Ġnew born
M ass
à¤ ¨
Ġblank et
Ġinit iate
Ġshar ply
Ø ¬
ul k
Pro xy
Ġpolit ically
Ġgrap hene
ĠTh or
yn chron
ch rome
L at
ed uc
Ġredu ctions
S eg
Ġ19 58
ĠAnd re
Ġb ored
Ġang el
Bas ic
ĠM ade
)) );
ĠPr incess
Pl an
Ġr outer
Ġ16 2
TR Y
av i
N B
A IN
ann o
3 64
à¹Ģ à¸
}} ,\
Ġins ist
Ġb end
Ġa i
ĠJ oint
Ġsa fer
Ge orge
ĠTrans fer
h art
Ġign oring
t oggle
0000 000
Ġvis ibility
Ġmodel ed
| $
Ġhom ology
circ le
ĠCh amber
Ġhell o
Ġadministr ator
Ġinc urred
Ġregul ates
ĠJ ur
pnt d
33 6
ĠF F
Ġem itted
Ġgr ades
---------------- ------
US ER
ĠPolit ical
Ġ20 4
en ant
According ly
Ġt an
orth y
Ġwal let
37 0
Ġcertain ty
Ġexceed s
ĠS oph
Ġi Pad
ight ing
Ġed itors
c gi
Ġcos mic
Ġstret ching
Ġcor ro
Ġacet ate
ri j
og raft
à¯ į
Ġr ays
ry s
Ġde ux
Ġlay ing
Ġall iance
Ġcritic ized
Ġpot assium
ĠT ak
ĠÃ©t Ã©
27 9
p aste
Ġphyl ogenetic
win ning
L ED
Ġchap ters
Ġre q
bo olean
process or
ef s
log ger
ĠTh ailand
Ġsecur ities
Ġappe aling
ĠH alf
Ġmod ular
Ġinv ented
Ġbrut al
ĠWARRANT Y
b ird
ĠT oy
ĠD as
29 7
Ġstr and
h in
Ġnon etheless
Ġmur m
Ġgood ness
Ġd erm
Ġare na
Ġhol idays
ĠCo al
ĠBel ow
yl ene
åĽ ½
Ġment ally
ĠVE GF
g if
Ġdep ressed
ĠSte in
ĠY e
ĠÐ´ Ð°
Ġfold ing
Ġtrib es
ĠØ £
ĠP ractice
Ġintention ally
f lex
Ġsk etch
ĠMet ro
D b
t et
Â ¬
n ÃŃ
ann ers
Ġvis itor
ĠGl ass
ac ic
Ġcent res
ĠConserv ative
it ives
ĠW a
Ġmic rowave
m aps
Æ °
Ġutter ly
ib les
ĠHig her
ĠA qu
rom y
Ġbreat he
Ġsyn th
ĠSE LECT
Ġfootball ers
n ick
Ġhe ars
ĠJ ake
Ġarr ange
Ġaccommod ation
om p
ĠAl ong
Ġgo at
Ġnetwork ing
aj o
Ġc ops
az i
ĠP oll
76 3
Ġetern al
Ġver se
ĠHol land
Ġimpos ing
Ġappro ve
Ġp g
ĠF u
he red
ĠI an
24 6
Ġexch anges
R ay
Ġ Äį
ĠD ays
Ġcontin ually
ĠSt age
Ġre wards
isc her
size of
B io
ĠAd vent
W L
Ġfibrobl asts
Ġnot ified
bin om
Ġformul as
Ġsur render
Ġstim ulate
Ġdiver gence
ĠInit ial
Ġnut rient
ess ages
vi ol
Ġharm on
Ġrac ism
^âĪĴ /âĪĴ
i Äĩ
Ġhy dra
Ġexecut ives
p ull
S up
26 9
Ġunf ortunate
ĠAl zheimer
key word
IC A
or ie
Ġla wn
Ġleuk emia
am az
ic us
ĠM ack
ov ich
Ġb ure
Ġ19 57
Ġpropag anda
ĠPers onal
Ġgard ens
Ġ16 3
ĠL O
Ġarg u
ĠH PV
Ġj er
ett es
S elf
ĠCarl os
Ġa ster
Ġadvoc ates
ĠA MP
set up
Ġpurs ued
ym al
ĠAssoci ated
Ġsan ct
ĠCr ime
ĠHil bert
Ġje alous
Ġn arc
od ic
so ever
Ġbit ch
Ġcivil ians
load ing
{ |
B ASE
s pl
L ove
: _
Ġc ens
ĠIndones ia
d in
aa aa
ithm etic
p ine
Ġlower ing
ĠÐº Ð¾
Ġrenew ed
ĠM n
Ġ3 20
st ill
ub ern
Ġline arly
il o
Ġt ennis
Ġun m
Ġill ustration
Ġbu zz
ĠÐ± Ñĭ
ĠLook ing
28 6
Ġtr ay
ĠCl ar
ĠStat istics
en ia
Ġge ographic
ä» ¶
Ġz ip
Ġtable ts
V ERT
Ġap i
åŃ Ĳ
Att ributes
åħ ¥
Ġcar ing
N ovember
Ġ" *
ĠâĪ ¼
Ġreferen ced
Ðº Ð¸
---------------- -
Ġres ent
Ġk un
Ġple aded
Ġsupport ive
Ġl ol
stack rel
ĠLead er
ab ad
c ient
Ġmult im
Ġwa ived
ĠC rown
erc ise
Ġhe n
Ġnic ely
Ġcr ust
ĠN ancy
W C
Ġthr one
Ġhyper b
âĢĥ âĢĥ
29 6
Ġpredict or
Ġr he
' ])
Ġcl o
d or
ĠC IR
ĠVal ues
ĠPat ient
ĠFin ance
Ġ3 65
che mic
Ġ5 12
Ġinvest ing
Ġne ph
Ġconnect s
Ġn M
ĠRail way
Ġfarm ing
Ġj s
L IST
Ġfol lic
Ġn ach
ĠC atherine
Ġsuper f
os ide
ĠF ant
C iv
Ġ19 43
ĠCh amp
oe lectric
Qu estion
Ġselect or
H O
Ġin ad
Ġin accur
Ġ19 55
Ġsum mon
ĠBAS IS
ĠDe ut
ĠHel en
ĠP oss
Ġbus es
Ġh uh
ĠB S
Ġal beit
ad ays
ĠA part
Res p
Ġtables poon
Ġmis under
Ġpursu ing
det ails
ĠU C
as et
Ġstr ang
Ġdil ution
N V
Ġsu ed
Ġ---------------- --
Ġch ambers
Ġneutr ino
Ġdiscl aim
Ġlad der
ĠP in
Ġflo ors
ÐµÐ» ÑĮ
Ġank le
Ġball oon
Ġknock down
ĠCl ient
Ġkey word
Se lection
C at
Ġfin est
Ġpredict ors
Ġsh y
is ure
Ġli en
ch at
19 72
Ġno on
chem ia
c amp
IN ST
c art
ĠLet ter
Ġex tern
Ġstrugg les
Ġnut rients
ke eping
Ġcor ps
ĠShang hai
Pl ace
Ġsc iences
Ġbro ker
ĠEs pecially
Ġcount less
ĠAr ist
Ġir res
AL E
Ġre imb
Ġ16 9
. \[
Ġc aspase
Ġsp arse
aps es
ah an
af fe
Ã± os
Ġ18 5
P erm
Ġcompens ate
al ion
} .\
atin um
Ġ19 47
ĠL ot
of fee
k ers
rib ly
Ġis chemic
Ġs s
24 3
ĠBet ter
Init ial
ĠDak ota
Ġclaim ant
Ġj ed
ĠH ERE
Ġpen etr
mid t
Ġdivid ing
Ġgorge ous
R ole
r ar
is co
Ġbi ased
Ġ2 35
Ġ16 6
Ġm p
Ġsatur ated
RA Y
27 7
26 7
+ $
uet ooth
ĠD ow
Ġc rap
Ġpath ogenic
Ġenact ed
id uc
Ġev olve
ĠHol mes
ĠW W
ĠTechn ical
29 8
Ġmult ic
ĠBank ruptcy
Ġalle les
F IL
ancell or
ĠP ER
sh irt
ĠGr id
Ġpol ys
34 7
Ġfound ing
Ġin def
Ġa ussi
stit uted
Ġfrustr ated
Ġd orm
ol ysis
80 8
Ġ\ _
int s
Ġinf inity
3 15
ow ing
othe t
ĠLiber ty
Ġb arn
Ġdispos al
Ġneur on
se ven
ĠM ale
organ ic
Ġprot esters
ĠI GF
Ġt ast
d ump
Ġimmun os
Ġreg istry
Ġcapac itor
} |\
Ġelectron ics
Ġvoc als
s qu
Ġplan ar
ĠH udson
Ġr ag
=" _
ob uf
ocr atic
ĠOffic ial
Ġinfil tr
Ġpur ification
ĠPan el
im i
land o
ÃŃ t
Ġl ing
/ +
ric a
Ġorgan isations
Ġhypox ia
ins ula
Ġe urop
Ġo z
el en
rang ian
d ens
32 2
ĠBe yond
Ġ19 5
^* (
Ġtyp ing
Ġ ÙĦ
Every one
Ġguarant ees
Ġcourt esy
Ġbra ke
Ġhun ger
Ġc ube
PL IED
UT E
Ġhands ome
g om
ĠL GBT
l iv
00 11
C ir
ĠF ish
Ġg a
Ġtutor ial
Com parison
Ġs arc
ĠMat rix
Ġkiss ed
Ġprior it
Ġexp onent
g c
g mail
Ġcar pet
Ġep och
Ġshe er
, .
g irl
Ġmer cy
ĠN athan
Ġun precedented
Ġcub ic
Å ¯
B er
r v
Ġex agger
Ġtub erculosis
Ġ17 6
\ -
Ġdon ation
Ġs nd
mind ed
Ġad apter
ĠH at
l ies
Ġacc idents
Ġm our
er als
ĠA RT
zym e
in burgh
Willi am
sen al
Ġw oke
U PDATE
33 9
Ġterror ists
Ġre arr
ĠDet ails
è µ
te chn
Ġsepar ating
3 40
Â ¢
Ġforg ive
ĠHarr ison
ool s
Ġapert ure
ĠD ra
por al
Ġelim inating
H OU
ob serv
s olid
ĠD L
s elling
ĠDef inition
L ES
om aterials
ach i
n h
un iform
." );
oc ity
Ġas ylum
flu ence
ĠAp J
Ġequ itable
Ġentreprene ur
Ġcl amp
bl ob
ĠW oman
upp er
Ġnom ination
Ġsoft ly
ĠArch ives
Ġsoul s
ĠB A
j p
Ġv ain
ĠIn str
Ġ[ ****,
27 4
ĠCom parison
Ġru in
Ġeight h
con scious
Ġepit he
] *
Ġbiom ass
}$ \
ynthe tic
styles heet
Ġe cc
du ced
Ã± a
Ġcivil ization
ong s
Aud io
ĠR ace
Ġleak age
Ġha em
ĠB T
ex ports
De legate
F ONT
â ĨĴ
H TTP
Ġnas al
Ġsort ing
s al
Ġim g
ĠG W
ĠÎ¼ Îµ
Ġb ending
Ġassign ments
ell ate
com it
Ġatt ribut
Sc roll
ĠR ice
ĠN eb
Ġreprodu ced
Ġterm ed
ĠB att
Ġmot ive
Su ccess
ĠV ent
... ]
ĠRe act
Ġmon o
Ġ---------------- ----
Ġtrig gers
less ness
m ons
ä» ¬
ĠYou th
ĠS alt
Ġ% }
Ġk et
av in
Â Ĳ
un al
---------------- ---
Ġdisadvant ages
b ond
ĠMalays ia
Ġvot er
ĠHon or
G I
Ġintraven ous
r ice
Ġgr in
Ġn ail
V ariable
Ġco pe
Ġreform s
Ġelect rically
adjust ed
Ġout lets
comp are
Ä Ĺ
Ġvent ilation
Ġwild life
re ated
ab an
inn y
Ġcred entials
ap on
Ġrep ublic
æ į
ex pect
æ ĭ
ãģ ¡
Ġdeal er
Ġbel ly
33 7
Ġlaw makers
uff le
product s
Rich ard
int age
Ġdefic its
Pl ugin
Ġconsc ience
n r
CL C
ĠR osen
ev es
Ġan atom
ĠK ath
Ġlar vae
ĠD iet
Ġplant ed
ĠW u
Ġtreat y
Ġconf irms
39 0
Ġambig uous
P eter
c ro
Ġp ins
SH A
ĠNig eria
Tr ack
ĠBo olean
Ġrail road
ĠT ol
Ġpl aque
Ġcatch ing
ond o
ic ar
col lect
Ġdon ations
he it
ĠAss essment
= %
Ġhab eas
ĠÎ »
ãĤ ı
Ġaud it
com ed
S ym
en ic
t ot
Ġcol orectal
Ġtrans fection
Ġst ems
ĠArgent ina
| ^{
čĊč ĊĠĠĠĠĠĠĠ
Ġhorm ones
Ġmin isters
Ġaud iences
" âĢĶ
ĠY u
hy dr
ĠEnter tainment
Ġgr ams
um ption
ĠĠĠĠĠĠĠĠĠĠĠ ĊĠ
ĠUn cle
ĠF iles
time out
gl ut
Ġf ame
Ġf t
ĠK re
ache lor
ĠG rey
Ġc ents
Ġloc om
Ġw ird
Ġv endor
epend ence
Ġto ys
ok u
ĠProduct s
/ "
Pro file
ĠĠĠĠĠĠĠĠĠĠĠĠĠĠĠĠĠĠĠĠĠĠĠĠĠĠĠĠĠĠĠĠ ĠĠĠĠĠĠĠĠĠĠĠĠĠĠĠĠĠĠĠĠĠĠĠ
Ġp ork
Ġp all
Ġven ous
Ġ2 15
H on
Ġen jo
ĠCar ib
ĠTr uth
33 8
Ġorig inated
Ġall oy
j c
36 8
Ġadjust ments
Ġb out
Ġb tn
Ġaut ophagy
Ġnation wide
ĠProfess ional
ĠÅ ¡
ĠS end
Ġad ul
à¤ ¤
Ġlic enses
En um
mult i
C ert
b atch
Ġin aug
otyp ing
Ġspecific ations
Ġantim icrobial
g art
Ġdil ig
ĠC el
Ġdipl omatic
Ġcomplic ation
isk a
ĠP resent
ĠH ttp
Are a
an other
ç ķ
Ġstat ue
ub ot
IC H
Ġanaly st
ĠK ay
Ġalleg ing
n ative
Ġmult id
Ġinter sect
Ġcoll ar
vert is
Ġorgan ize
Ġ à¦
Ġintrodu ces
Ġprior ities
ĠH orn
Ġshr ink
Sc ope
Ġun dis
T i
Ġ Ïĩ
Ġcrypt o
en ue
und ry
Ġarriv es
Ġru pt
Ġ? >
ocyt osis
d w
Ġmed itation
Ġc ros
ok o
Ġbod ily
Ġcylind rical
Ġtrium ph
T ur
Ġsun light
ific ates
Ġpro g
ut ative
vart heta
Ġconduct or
Ġreg ener
b is
US S
bs erver
g ow
H ope
Ġve z
ĠEd wards
Ġl ub
ĠHug hes
yl ated
ĠT odd
Ġbless ed
Ġpr ince
m ot
Ġchrom atin
In terest
ĠPro blem
çĲ Ĩ
Ġle ur
Ġmig r
Ġregim en
Ġel ic
Ġembry onic
H W
m oz
Ġconfirm ing
Ġaux iliary
Ġdign ity
Ġw reck
Ã ı
Ġdefic ient
Ġis chemia
Ġs aint
Ġre consider
ren cies
ĠKe ith
Ġ ÏĮ
ĠBre ak
Ġdam aging
Ġax es
Ġprogram mes
Ġprim a
read ing
Ġinfar ction
m ans
Ġhypothes ized
ĠS ample
pect or
Ġrevers ible
Ġincorpor ating
Ġmis er
Get ty
Ġhyp ers
Stud y
Fr agment
L ear
Ġj eg
Ext ension
arg ument
ĠAl most
& =\
Ġpri ests
Ġ17 9
ine z
ĠJ ar
hy th
ORD ER
Ġlo os
ĠRE G
z u
3 30
Ġmake up
Ġhistor ian
ĠÏĦÎ· ÏĤ
Ġun anim
Ġcom or
ĠG aza
Ġfil tration
r ise
amp a
Th omas
Ġpat ron
Ġl amb
ĠSub sequently
ĠPortug al
th y
åľ °
ri ke
Ġe g
\ ":
ĠSpe ed
ang i
Ġneighbour hood
J ournal
Ġst icks
H ol
Ġrec ess
acter ial
Ġpay load
Feb ruary
ĠX X
Ġn ou
Ġtraject ories
ĠF itz
Ġgroup ed
ĠEd ge
rict ed
yl an
Ġtomat o
Ġper i
ĠBrazil ian
plug ins
ĠLu cy
Ġ19 53
ĠB rain
W all
w ic
28 7
ĠEq s
ãĥ ķ
ĠU pper
Ev ents
Ġathlet ic
^ (
ext ra
Ġ~ *
ĠC urt
ĠAd m
ĠBy te
ĠHam pshire
e j
ĠK rist
an ie
000 9
Ġc iv
Ap pe
ĠWork ers
3 80
ĠRe yn
L es
Ġsu pre
ly cer
ĠÂ ½
M ir
ĠJ P
Ġsn apped
ĠB oot
Ġsp ike
ĠIndust rial
ãĤ ¸
int endo
Date Time
Ġsymp athetic
Ġes ter
ĠCom plex
Ġcon gen
Ġsw ear
ast ro
R oute
per formance
è¡ ¨
ĠAgain st
Ġinv ari
Comp eting
in itions
Ġart ifacts
pack ages
| _
åĲ Ī
ëĬ Ķ
Ġmi xtures
Ġnav igate
own ers
Ġgentle men
Ġterm inate
up arrow
hen g
âĸ Ī
Ġ19 54
ĠAl fred
ĠC hat
Ġsystem atically
es p
Ġmagn ific
Ġfor fe
66 6
Ġo we
Ġd yn
Ġsp or
Ġvulner ability
Ġbit coin
Ġtrad ed
Ġrelie ved
Ġsuccess or
Ġche eks
Pol ice
Ġmed ieval
ĠRe uters
ĠV it
Ġlist ener
ĠS igma
Ġo ils
ĠTOD O
artifact Id
g re
Ġinto x
ĠS ri
ĠWrit ing
28 9
ĠTre asury
ext ension
Line ar
k ill
pro pto
Ġle pt
Ð¸ Ð¸
ĠF ont
Ġex ports
IC O
ĠL DL
run ning
J ul
*( *
Ġultr ason
em bed
Ġsomet ime
C as
C AT
Ġasc ertain
ĠÃª tre
Ġmerch ant
ack ets
Ġ17 7
Ġref lections
F ar
26 3
vis ory
. ]{}
Ġobst acles
Y ES
Ġadsor ption
Ġpe ut
Ġjud ged
W ow
ĠMin i
ĠĠĠĠĠĠĠĠĠĠĠĠĠĠĠĠĠĠĠĠĠĠĠĠĠĠĠĠĠĠĠĠĠĠĠĠĠĠĠĠĠĠĠĠĠĠĠĠĠĠĠĠĠĠĠĠ ĠĠĠĠĠ
ĠT D
er ring
Ñı ÑĤ
ict ures
Ġfree zing
Ġtun ed
ĠEx cel
ĠE c
Ġ] $
&= &\
Ġcytoplasm ic
33 4
ĠConsider ing
AD E
v v
op oly
ĠĠĠĠĠĠĠĠĠĠĠĠĠĠĠĠĠĠĠĠĠĠĠĠĠĠĠĠĠĠĠĠĠĠĠĠĠĠĠĠĠĠĠĠĠĠĠĠĠĠĠĠĠĠĠĠ ĠĠ
ĠP enn
40 9
IT S
Ġpers ist
Ġcolleg es
Ġson o
tri angle
se ed
Ġ3 01
Ġcl ay
Ġkin etics
R s
d ates
ar cer
i per
Ġarom atic
Ġpreserv ing
Ġpenet ration
Ġ$- $
ID TH
Ġpool s
Ġhur ry
": {"
th ought
Ġun itary
an as
PAR AM
t iny
Ġback wards
ĠÎ Ń
pe x
Ġble w
Ġpul s
Ġjav ax
ĠCor ollary
ab etes
é ĥ
uss els
ad v
Ġpers pectives
,\ \
Ġexp ans
T her
Field s
Ġhat red
æĸ °
Ġmed ial
ĠÑĤ Ð°Ðº
Ġup stairs
Ġbr acket
ĠR S
L imit
Ġdiffe red
Ġhypothes es
Ġ( ((
o op
Ġincorpor ation
Ġm aker
Ġdig its
od s
ĠP ok
ĠWar ner
Ġm ont
the me
A ir
list ed
Ġp iss
ma jor
Ġjour nals
Ġdece ased
50 4
Ġd st
s ync
ĠMar cus
Ġsc aled
K A
u ks
Ġind oor
0 60
Ġoper a
l p
Ġ19 49
Ġ[ ],
Ġmo i
Ġ17 2
B a
J im
ĠEffect s
Ġbron ch
IC ATION
mod al
M ur
ĠÎ ·
ĠĠĠĠĠĠĠĠĠĠĠĠĠĠĠĠĠĠĠĠĠĠĠĠĠĠĠĠĠĠĠĠ ĠĠĠĠĠĠĠĠĠĠĠĠĠĠĠĠĠĠĠĠĠĠ
Ġdevelop s
FOR M
Ġtour ists
Ġend omet
ol an
Ġmer ger
Ġmis leading
Ġexec uting
Ġimplant ation
Ġconject ure
ĠS or
Ð¸ Ð´
ĠC oul
æĿ ¥
Ġremed ies
Â ī
ĠCle an
act ly
V IS
Ġtravel s
ote chnology
us k
ç Ń
ĠZ one
à¤ ķ
t rain
Ġshell s
» ¿
Ġrepe ating
sc riber
ĠH ello
Ġrem inder
Ġhybrid ization
Ġmarg ins
R andom
Ġpass ages
B egin
Ġhist ological
ĠLl oyd
Ġdry ing
Look ing
Ġwe ighed
Ġintegr ating
Ġadvantage ous
Ġbom bs
Ġcar ot
Ġcal ibr
ãĥ Ń
Ġingred ient
ar ial
AR M
Com put
Ġveloc ities
Ġpur ity
Ġdos age
åĲ Į
P OS
Ġpsych iat
ĠCle ar
inv oke
ĠO T
m is
ĠPro test
ĠTR UE
uk in
E ST
ber ger
35 7
ĠB apt
Ġvisual ization
ÈĻ i
Ġspin ning
ĠM ol
Ġ[ \
M ouse
Ġpractition ers
Ġrequest ing
C ALL
c ation
R aw
Ġse u
at omy
im us
ĠD raw
L aw
ph oto
Ġspec ially
B ay
ĠCl ose
ä» ĸ
44 4
^{ (\
ĠÃ ĥ
G LE
Ġsell er
ah r
en es
35 9
Ġj azz
ĠF riends
Ġ; )
STR ING
Ġfront al
ĠRom ney
oc ate
Ġpool ed
author ized
we eks
ĠG ill
ĠMar vel
ica id
Ġinhib iting
MS O
ap a
ĠPriv acy
ĠLi u
Ġinev itably
H or
D rop
Ġwhis per
Ø§ Ø±
Ġt ours
il ic
ens on
l ittle
ĠA IDS
us age
Ġdepth s
ic iency
ĠQ ual
reg s
Ġcomm enced
h all
T ri
ident ified
Ġignor ance
Ġsc atter
B ad
ĠFor ces
ĠL uther
Ġaccess ing
Ġhierarch ical
Ġz ur
Ġc ott
ÃŃ an
s ig
ĠO ften
ĠEm ily
Ġc ares
pl asia
b uck
e lection
Ġind ul
Ġrepe ats
Ġth under
um per
ĠPo isson
2 99
ĠPe ak
Ġswe ep
ĠUr ban
ĠRe ed
Ġ20 8
ĠE ur
Ġ2 16
Ġal lege
ĠD ublin
ik k
L ou
Dan iel
ĠL abel
Ġreven ues
at ched
Ġmunicip ality
ĠComp an
Ġschizophren ia
ul le
N i
ard i
Ġcur iosity
Ġinn ate
ĠBer keley
=" -
Ġapprec iation
n pm
Ġcred ible
Ġpos es
ĠSt ack
æ ±
ĠĠĠĠĠĠĠĠĠĠĠĠĠĠĠĠĠĠĠĠĠĠĠĠĠĠĠĠĠĠĠĠĠĠĠĠĠĠĠĠĠĠĠĠĠĠĠĠĠĠĠĠĠĠĠĠ Ġ
ĠLeg al
group Id
Ġ17 1
Ġback grounds
em n
24 1
ä½ ł
... ."
Ġsupre me
g ements
face book
2 19
ed i
ok s
m illion
37 4
Ġde er
A W
Ġdeleg ate
Ġt ert
il iation
m ock
ĠWell s
es ium
Ġopt imum
ĠÐ ļ
Americ a
ĠK in
P ubl
> $
Ġch ase
or p
rit ory
M G
0 80
AN N
y outube
AR G
Ġlength y
Ġunderstand s
AR GET
Ġcitizens hip
Ġenc ryption
Ġsequ el
Ġly rics
oy l
Ġfather s
fe ature
ob l
ap hr
Ġcrow ds
Ġdisput es
Ġmur ine
Ġsens ible
Ġlim bs
ĠT G
ĠPro c
ĠMont real
ĠCub a
sc al
ĠCol omb
T ABLE
ĠComm ander
Ġsh ipped
ĠHar vey
Ġwhat soever
az er
45 5
Ġz o
ph arm
ãģ Ľ
ĠF alls
ĠSw ift
ĠGu idelines
ster dam
Ġfraction al
Ġ19 46
Ġaest hetic
Â Ł
Ġdoub ts
Ġham mer
Ġsupposed ly
ĠM ode
%%%% %%%%
Ġstress es
ill on
Ġrot or
cont ains
Ġindu cing
ĠOper ation
Ġlink age
^* \
ĠB arcelona
ĠVal ent
Ġalbum in
Ġcurric ulum
hor a
enti eth
n ih
ĠCon versely
rain ian
Ġconflic ting
or ity
NE W
Ġnot ify
Ġ19 52
bor ough
Ġprem ier
Ġste pping
phab et
An t
b io
Ġannoy ing
Ġconver ter
) }_
Ġfight s
Ġgen etically
ic illin
Ġ18 9
Ġun common
de bt
atur ated
ib e
cl uster
ĠN V
Ġam yl
ande z
em atic
ĊĠĠĠĠĠĠĠĠ ĊĠĠĠĠĠĠĠ
weight ed
38 5
Ġremark ably
Ġor bits
Ġup regulated
M om
Ġsec uring
Ġambit ious
Ġbl own
Ġoper ative
Ġc ables
Ġ17 3
ĠK ol
ĠAut om
Ã »
MS G
Ġcal ories
config uration
ĠD ON
ous ed
Ġprotect s
ĠAct ually
39 6
Ġcopy ing
am iliar
Ġst ern
---------------- ---------
ĠFor um
ĠM atter
Ġsem antic
m ix
ĠBob by
Ġd up
ĠM aking
exp ensive
M i
re peat
) âĢĵ
Ġdist urbed
Ġgovernment al
tr im
f etch
Ġfar mer
Ġathe ros
ĠG PU
H o
( %
D ear
26 2
ĠSur v
ount ain
Ġ17 4
+ ,
att s
ĠAPPE ALS
L and
Ġbe an
Ġatt en
ig ion
ucl ide
ik er
Ġc ows
Ġmetast ases
ĠDir ac
Ġp ond
Ġwilling ness
Ġvend ors
ĠH LA
ĠRe ally
Îµ Î¯
Ġeas iest
ĠStr ong
IP S
Ġrout ing
t fn
ac hers
ĠS id
Un til
ic in
on ial
ĠH ob
H ot
ĠT N
}} }^
Ġanalog y
h ouses
Ġsymb olic
er ie
Ġmal icious
pos s
ĠL ex
with in
}, {\
40 7
ĠF err
ĠS olar
Ġcomb ines
Ġconsult ant
B al
Ġrational e
Des c
ĠH b
ph yl
un ts
l b
Ġcontribut ors
Ġc ared
Ġhand y
Ġel bow
b ast
it on
t ons
B ottom
Ġper ceptions
UR N
Ġsal mon
Ġ3 30
ĠK az
ĠRuss ians
Ġem pl
f ail
ĠÐ² Ñģ
W ARN
Ġcreat or
| }
L ater
Ġobserv able
27 8
In deed
Ġpark ed
Ġtomat oes
Ġdeliber ate
Ġdisg ust
ic idal
Ġ19 00
Ġloc ks
Ġins ane
Ġre write
ach y
-> _
ophage al
Ġd otted
head ed
ĠT ow
ĠG DP
Ġv u
Ġsub space
Ø§ Øª
Ġwork flow
Ġj ets
accept able
mys ql
ol utely
Ġ\ (
r ade
AN C
âī ¤
Ġ17 8
Ġspons ored
Ġcompan ions
n is
ĠPubl ishing
Ġindic ative
ĠT on
CM D
top ic
Ġhistor ically
Ġm ai
Ġse aling
ct rl
Ġcapital ism
Ġrom ance
Ġpolymorph ism
Ġnot ebook
Ar ab
Ġsc ary
Ġscrut iny
Ġbrid ges
40 6
Ġc ada
. __
ar coma
E t
V O
Ðµ ÑģÑĤ
Ġpr ayers
pol ar
Ġv ivid
Ġsupp lementary
ben z
Ġtr icks
p H
ĠÃ© s
Ġ- =
É Ļ
ĠM AC
ĠM oz
form al
Ġpresum ed
p ired
Ġ20 3
Ġ4 01
Ġimm ense
ĠM G
37 9
Rec ently
ĠOut put
ĠNon etheless
boot strap
Ð°Ð» ÑĮ
um bling
Ġqu el
Ġcorrel ate
in vest
Ġincon ven
Ġcoron avirus
Ġimm ob
ç¬ ¬
let ed
ung le
Ġaut h
Ġwh oles
Ġembod iments
å¤ ļ
D u
Ġ iz
pos sible
ĠN u
Ġam ple
parent s
W ITH
ĠP ret
Ġarter ies
ĠMon th
Ġe iner
Ġcon du
og o
c rit
Ġl anes
' _{
ĠBrother s
Ġlog ged
Ġ$(' #
ĠSh ah
Ġcont amin
D uration
Ġup right
ĠIraq i
Ġfool ish
commun ity
ystem s
Ġw iring
Ġtax i
ste ine
ore nce
ĠE F
Ġser a
Ġmill enn
Ġhead ache
Ġblow ing
Ġepithe lium
ENT S
Ġcontribut or
Ġpl a
ĠR oche
ĠK ur
ĠF oster
{ $\
ĠLe o
Ġreplic ates
no ise
Ġper ceive
40 2
Ġp ag
Ġst en
pro gress
ĠNAT O
H ard
Ġinher itance
ĠSome one
Ġimm ers
Ġec ological
ĠAb raham
ograph ics
Ġblog s
Ġes se
ĠO scar
NOT ES
Ġlymph oma
ĠColl abor
w l
Ġbe i
ast a
ĠConst ruction
Å ³
irm ingham
rend um
Ġun ve
Ġman eu
Pat tern
ub s
ant ry
Ġ2 11
W arning
Ġsn ake
Ġhous ed
Ġstack ed
Ġcr ushed
Ġind igenous
ãĥ ¬
ĠK os
v r
Ġmat uration
K R
× ª
schem as
ĠJud gment
or por
^âĪĴ ^
val ued
Ġphotograp her
ip eline
Ġret al
ĠSh aw
M ary
Ġaver aging
b ands
ist ors
un ing
ĠSt orm
Ġfast ing
ri le
35 6
n om
ĠEvent ually
mem bers
at ility
gr ades
Ġbo om
Ġpair ing
mod ified
ĠP ir
c use
Ġo ath
64 8
Ġconsult ing
Ðº Ð¾
Ġeigen value
Ġpar ish
67 8
Ġaccept s
Ġparas ite
ern ate
um ina
Ġ ****,
ract ing
Ġfurn ished
Ġlight ning
Ġarm or
Bo olean
Ġres igned
sh ine
Ġdefin itive
35 4
Ġinform al
M ock
Ġcomp elled
ĠÐº Ð°Ðº
Ġpre view
Ġmamm als
C amp
Ġcomprom ised
Ġrecogn ised
mat ched
dis abled
à¸ ĩ
M ajor
ĠC ycl
Is rael
LA Y
ĠY ellow
Ġle verage
ber ries
ish a
Ġstead ily
Ġter rain
ĠK aren
ĠB ren
Ġretriev al
ĠPear son
Ġmim ic
line width
Ġlos es
ĠW O
g ue
ht m
Ġw inding
y k
Sm all
, (
Ke ys
ĠÐ Ŀ
po inter
W IN
ĠB ird
ĠIn side
Ġgrad ed
ren s
ĠM oses
38 8
â ģ
Ġt ile
ce phal
ÑĢ Ð°Ð½
T Y
Ġdirect ing
Ġcorro bor
ĠM ons
mom ent
ĠPU BL
Ġall erg
Ġestabl ishes
Ġ2 13
Ġpossess es
Ġhem isp
cul ation
Ġse ct
est on
Ġtrans mitting
Ġvis a
Ġlon ely
." )
Ġloc als
Ġj avascript
Th ird
ĠKE Y
Ġchrom osomes
ĠAn aly
Gener ic
de al
F acebook
ab ove
ra ising
ol ia
ĠN SA
27 2
Ġprompt ly
S ocial
Ġ19 51
urch ase
Ġbure auc
ĠF P
Ġdou bled
IC AL
Ġk i
A li
Ġs ore
45 6
st ad
}^{ +
ĠQuant um
Ġ' %
Q Q
37 8
36 7
Ġcred itors
Ġiter ations
ad minist
Ġnews letter
Ġem power
Ġful filled
Ġdisput ed
ĠDi amond
Ġest rogen
ĠP un
az ar
Ġsc anner
Ġrecogn izes
Ġcrick et
Pro gress
CT L
ĠA us
Ġfun gal
à¥ ĭ
à¸ ±
ĠCon text
Ġsan ction
do ing
ĠSix th
Ġ18 7
Ġantagon ist
en as
inv ariant
ĠL S
E lements
Ġb if
Ġconf ess
ĠOr iginal
Serv ices
Ġc oded
Ġv amp
Ġrem ot
il ine
Act ually
Ġs ized
ĠH ab
S ports
av ia
Ġtun ing
ling ton
Ġnav al
Def endant
Ġword en
Ġres ur
ung s
W rit
t b
Ġ20 6
igh bor
Ġsl ots
ĠSt ars
19 71
ĠJ ag
ĠH unt
Ġdisc ourse
OR M
ASS ERT
ing en
Ġw itch
Ġdevast ating
de b
R ot
40 3
pi pe
en berg
Ġbow el
ĠN GC
Ġwel comed
bre vi
Ġc c
L ower
I g
fess ional
Ġmulti plication
IE W
yd rate
Ġenh ances
Ġprote ase
h on
ĠB right
Ġobser vers
K N
ĠMark ov
Ġun aware
the ning
Ġge ographical
hes is
_ "
Ġcomp ilation
Â» .
ĠM uh
Ġneighborhood s
64 6
Ġneon atal
XX XX
Ġquot ation
Ã½ ch
Ġf ost
Ġpil ots
Ġordin ance
) !
ce il
Ġillum ination
op ens
per cent
Ġlaunch ing
id ades
Ġco herence
Ġbl ades
Ġ2 75
gom ery
Ġdi ets
Ġphys i
Ġeight een
ĠHe brew
IC S
Ġwas ted
Pl us
Ġremind s
cs v
Ġsc anned
Ġre agents
part icle
Ġ× Ķ
ĠFin land
ĠÂ ·
k ern
Ġde gener
Ġmult if
Ġincent ive
æī Ģ
. âĢĶ
Ġfor ums
Ġsix teen
CL US
f eld
Ġcasc ade
Ġto e
Ġpol es
read able
Ġparad ox
ĠQue bec
Ġpist ol
34 8
Ġf s
ĠD elta
B ACK
ĠS oul
Ġcontin ent
ĠH yp
Ġhe els
Ġp ads
ĠPier re
ĠR ank
ĠR EM
Ġcomm ence
G ot
ĠB urg
bl ood
Ġ18 8
Ġpers istence
produ ction
Ġj am
Ġmorph ism
B ill
ĠIC U
Ġneed ing
ind e
Z Z
qu art
resh olds
Ġbo iling
col lection
Ġco arse
65 5
t om
stat ement
Ġ( .
J on
Ġrapp ort
Î» Î¿
Ġmy sql
s ocket
ĠT IME
ĊĊĊĊ ĊĊĊĊ
um ann
ĠÑģ Ð»
Ġnons ense
Ġrect angle
in tern
Ġ19 7
rad io
u is
Ġdiscuss es
ver b
ient e
Ġo der
Stat ement
Ġdesign ation
Ġsign alling
Ġk ings
S ix
t ok
))/( (-
* ;
Ġpu zzle
Ġ$\ {\
F re
s ymbol
Ġmis represent
Ġeven ly
othet ical
60 6
in valid
d ll
ĠS UM
ie g
Ġclick ed
Ġsubdiv ision
Ġharm less
Ġpor que
Ġty rosine
Ġce ased
Ġund oubtedly
ST EM
Â ĸ
N ob
ĠEx cept
ut z
Ġcomp oser
Cle ar
w rapper
Ù ī
el ines
ĠRich mond
ys es
ĠPR O
unn ed
Ġ18 6
C y
ĠG MT
ĠD EN
ĠDef ine
Ġcollect or
Ġmic rom
ifer ase
L ittle
Ġ Ùģ
Ġconfront ed
ĊĠĊĠ ĊĠĊĠ
Enc oding
flu id
× ŀ
ĠS qu
oph ila
pan cy
j am
ĠV ers
ĠÃ ¢
Ġro ok
ale y
Ġsub types
DE X
DE FAULT
Ġbre w
ĠHy per
ĠDe al
ĠJerem y
Ph ot
Ġforb idden
[ \*](#
ant om
ĠJun ior
IT ER
D ue
Ġdetect ors
Ġconf inement
Ġyoung est
I gn
Ġ{ };
ĠCom plete
Ġmight y
uff s
os ion
m ile
al ia
Ġprov incial
Ġhab en
å¦ Ĥ
H B
Ġreal ised
Ġopp ose
F ive
and em
ac in
Ġen light
Ġreven ge
Ġpo ems
WR ITE
ass a
ograph s
Ġfraud ulent
ist as
as per
Ġn ont
Ġill usion
88 8
os hi
ĠSh ar
cept ual
ĠNet flix
Ġsu e
ĠWall ace
Ġcolle ague
g em
Ġcre ep
ist ered
1 0000
[...]
